/**
  ******************************************************************************
  * @file    rain_detector_model_data_params.c
  * @author  AST Embedded Analytics Research Platform
  * @date    Sun Jun  7 22:16:02 2026
  * @brief   AI Tool Automatic Code Generator for Embedded NN computing
  ******************************************************************************
  * Copyright (c) 2026 STMicroelectronics.
  * All rights reserved.
  *
  * This software is licensed under terms that can be found in the LICENSE file
  * in the root directory of this software component.
  * If no LICENSE file comes with this software, it is provided AS-IS.
  ******************************************************************************
  */

#include "rain_detector_model_data_params.h"


/**  Activations Section  ****************************************************/
ai_handle g_rain_detector_model_activations_table[1 + 2] = {
  AI_HANDLE_PTR(AI_MAGIC_MARKER),
  AI_HANDLE_PTR(NULL),
  AI_HANDLE_PTR(AI_MAGIC_MARKER),
};




/**  Weights Section  ********************************************************/
AI_ALIGNED(32)
const ai_u64 s_rain_detector_model_weights_array_u64[282] = {
  0xc0bdecdfc896f781U, 0xff94088151920904U, 0xa6f29a227f944fa3U, 0x81a464926c35479bU,
  0x1b8e9a3e90b11dc6U, 0xa16d08fa28813fdaU, 0x4781cd7f0e6c7bceU, 0xe2d331d7f2daa721U,
  0x48cc855c7fa6e374U, 0x20139a48ccb47fd4U, 0x3b6733268fac7f91U, 0x1bb18d75f6add0f4U,
  0x7fc3c547c5d83f7fU, 0xd57d0cc4a5c78cb5U, 0xf2de18750dff7f49U, 0x3f2ecabe468997fU,
  0xd306cd2d7ff3a956U, 0xe748b22a55d77f3eU, 0xffffff420000018dU, 0x323ffffff4aU,
  0x51cffffff23U, 0x652fffffe4eU, 0xfffffb21fffffb51U, 0x5b20000005dU,
  0x10600000c6fU, 0xfffffc3d00000101U, 0x9e41436f123fde0U, 0x2c341e0ee77f7f14U,
  0xb1e9f006c8eadad8U, 0xf9d0df80dad414e1U, 0x5b5cf430c32e3e93U, 0xd4b7ef0c1e4e4cabU,
  0x34f4787f81647c93U, 0xb72cbbc914fe222bU, 0x357f8232ae7db3d4U, 0x5e2a20c7fd3e5103U,
  0x7f5eda0898a16d98U, 0x815a8d6f817fdc81U, 0xf32e5a523c267f81U, 0xf2b885335af4711fU,
  0x3d61c7fd429ca9e2U, 0x162749cae71f4645U, 0x7df9c528bd7fb1ecU, 0x1c7fa57fb4fef8b5U,
  0x54c87f682a38a7afU, 0xa0a9815b161b7fe1U, 0xff39be4fa1f48405U, 0x116c0ea2e216ea41U,
  0xfffffe7200000019U, 0xffffff810000004fU, 0xd1000002e9U, 0xffffffa8ffffff26U,
  0x740000020cU, 0x19b000000a2U, 0x111000001f0U, 0xfffffd2d0000002aU,
  0xd0e202b37acfac0U, 0xc39e2aa2a581f00cU, 0xcfe30e0ef2527ff9U, 0xce7c7483c3f2915U,
  0xf7c4e69a84c72fbU, 0xcf7f442089fcf3e3U, 0xc11808f2e4068d1bU, 0xc55c9581b056b797U,
  0x81ceb71e03e3e278U, 0x534020fcd95550b0U, 0x2adeb9ccc9810f35U, 0x1e74d22bfc2bcb52U,
  0x810c293a1ceef03cU, 0xffe6eefa0a3adfefU, 0x816440cb8f58839eU, 0x608b721a00ac8c88U,
  0x45f832d6b904ec81U, 0x531a1dbd10d2b2d9U, 0x32e8dcc817112e1U, 0x45ab8aed441d599eU,
  0x7c7bf81685cfdfaU, 0x32baf6aedc2f0632U, 0x3fdac667330f811fU, 0x1300cda27800e70bU,
  0xe3cc47d28f2b22f1U, 0x68ffcaff3ddc3a81U, 0x4e0f3d4cf32eaa1U, 0xe412135bd281c53bU,
  0xa12ae7e3ad1c401fU, 0xef81b11ffc08024dU, 0x814237e7ea111c3cU, 0x719e260f71bb06fU,
  0x64f2e46eda5fe81U, 0xf3af1ec738304f60U, 0xc1dbc3b24605dcecU, 0x30c30fc88781162cU,
  0x3038b8e900fdb6e1U, 0x267f11cc84f6b8feU, 0x1da2e3311927277fU, 0xfaf527da114b1cb7U,
  0xc7e8d6bcd6814f2aU, 0x1f2525b5e1df171bU, 0x59e1a7f5eabf3227U, 0x2463ead3958192b6U,
  0x3229e5defc157fbfU, 0x13a6b6a26a4c064eU, 0xf80a3f2246b9ecb6U, 0x48ce5700f28111e3U,
  0xffffff610000012fU, 0xffffff90fffffb8eU, 0x15efffffee3U, 0x46ffffff12U,
  0xffffffa8ffffff57U, 0x1ad000000deU, 0xffffffa1fffffef0U, 0xfffffc94ffffffc2U,
  0xffffffc5000000c6U, 0xffffff9ffffffc03U, 0xffffff46fffffe43U, 0x10cfffffe08U,
  0x26fdc1c549b4ab23U, 0xb7fb0f14c4f8e45bU, 0xcbd83232cf427fbaU, 0x41a3f2e16106dc4dU,
  0x11264a59e8195160U, 0x153e504b805f5c01U, 0x7f8787be68dee9f8U, 0x4adbb07faa2a7fccU,
  0xdb33477f81474fe6U, 0x639221dd43383336U, 0x7f6e1033640a0246U, 0xda6e2771b23c498fU,
  0xbc6e2d308c68170U, 0x7a817ff22803687fU, 0x1b7f7fc8df7f4890U, 0x7881dc817f9ddde0U,
  0x20d3156dbc7f554fU, 0xef421305a05045b2U, 0x5dbbb8ae4ee84929U, 0x54360b0649612f33U,
  0xe47d1e38d56b5c94U, 0xfe1d2b90c81927fU, 0xe6994430515d487dU, 0x5e1d5babd12e0ebbU,
  0x778481ba6193f2c2U, 0x55b2895381794bd2U, 0x37b90020a77c7facU, 0x4ba981fd55c30f1fU,
  0x61530855002a0040U, 0x51412240f54c1f81U, 0xeacd11bee0879f3dU, 0xb0c859475010306eU,
  0x7f1850e4e76e24b3U, 0xf5ffffffadU, 0x2a00000173U, 0xffffffb30000006aU,
  0xe00000103U, 0x6b0000006bU, 0x1300000043U, 0x1000000f0U,
  0x890000011aU, 0x1500000105U, 0xee0000004cU, 0xe00000065U,
  0x1af00000030U, 0x2b79d67fb81dff63U, 0xe0b21f05ba5e6a18U, 0xcb2618e45fc55755U,
  0x2337fd7f2e0ba15eU, 0xd8f4c540af415922U, 0x3bf609dafd164810U, 0xbd7f970df20ecdfcU,
  0xcef7eb14e90f531dU, 0x2de163ed6e20939U, 0xb87fe5cdfcb2aae7U, 0xce25b717d35c1714U,
  0xf4ea1865fffa4c54U, 0x1e7f12fd0be4c91bU, 0xfe02d4101d49092eU, 0x14efce3be0e50c57U,
  0x98bc4a23334d1923U, 0xf47f4a015cc62c52U, 0x1a1d5ae5d656c1b8U, 0xb5f16c34236770ddU,
  0xfd7f741939adb923U, 0x5013f4e622361c0eU, 0x397cf060dfb9f203U, 0xd0aad5644016d798U,
  0x4dec2ad27f445e2fU, 0x421b33d108d0bf85U, 0x292735a50b0f1167U, 0x967f49a0e674cfbaU,
  0xe1aac00df47b7ff5U, 0x1d702f1cffcbcffcU, 0x255567d8ed52b8f0U, 0xd7d9d3162d5723f5U,
  0x575d03bf7fa52f1aU, 0xd1603db9d9e9fb4aU, 0xb6f6e1177f271734U, 0x144840ed7e139f30U,
  0x574341e8fe29989aU, 0xb891dda645f1530eU, 0x493a75e47febea2bU, 0x6f3978e23c4e9b12U,
  0x9281e2f71fdf0d5bU, 0xed286bfc793b2f3fU, 0x121bf9fc0e26b7ccU, 0x180352ead4427f8aU,
  0x32533321e2c202efU, 0x4754f4e3c632fde4U, 0x4d231a3bc4c6fad0U, 0xf51aca7fe3375ceaU,
  0x34c7e7d66604fe67U, 0xcb76b9d6f9bbcbebU, 0xe7c7013cf24564e3U, 0xf301177fcce81547U,
  0xdcaf552b681554d1U, 0x482f7fcf58f4ca2eU, 0x5804631aa61822cdU, 0xd1a11de47ffd0469U,
  0xc8635c1411392656U, 0xed691223aa1ab6adU, 0x1a533957f31e3d1U, 0x2261f1c43af2f97aU,
  0x416a7bc6394992e3U, 0xe47fc8cadec3accdU, 0x2801efd8ffeb1ff4U, 0x2c240323da084c2fU,
  0x337fdd1b00fddefcU, 0xcfeecf5be14d4805U, 0x42f1e72a4c0f71f6U, 0x81d2db1038a9f1ffU,
  0xecc5c69b1d93fe23U, 0xcff3b9c21b88c0a3U, 0x4b7f2d55f219ef16U, 0xbe31c56b221403beU,
  0xd621343514d43323U, 0x336b1a34810b2115U, 0xbfece243f01e7524U, 0xd6bc24f6d8fb61ecU,
  0xc18118fd222e4e1aU, 0x315f47d96008fb05U, 0x553c2722cd3d15cbU, 0xcfadd8d24536f75fU,
  0x43477feff8cdc40eU, 0x654429d9b54bf52eU, 0xbcc7baff7f415608U, 0x7b34791565d6d41eU,
  0x9494bb7f462e1a9U, 0xc6931295317f046dU, 0xcd363cde3fd82700U, 0x72fd30f9cfc7282eU,
  0x8978dd1de8ea24a2U, 0x21ed0b5881f163beU, 0x39e2e849b8487632U, 0x387f4b71bafa1ddbU,
  0xbfa71a3531226026U, 0x16d81c736b0cf536U, 0x88179d0f7a57ffU, 0x7445fce5f2047fU,
  0x471f79f9e41716c9U, 0xa1000000aeU, 0x9c00000051U, 0xdd0000006bU,
  0xc3000000c0U, 0xadffffffb5U, 0x5100000083U, 0x1b00000066U,
  0xfaffffff94U, 0x21000000cdU, 0xfffffffb00000029U, 0xa800000042U,
  0xe8ffffff26U, 0x73000000caU, 0x46000000a3U, 0x4100000037U,
  0x33000000a1U, 0x1a5933dacc811d04U, 0xa2f43165534c735bU, 0x1beaf8ae52f52bd0U,
  0x1fdfff4324336111U, 0x5cdda06a283a5647U, 0x5fce81d8d1a6a7b5U, 0x6cf14817acade816U,
  0x9c2347b7c7a71056U, 0x1c2fffffe6bU,
};


ai_handle g_rain_detector_model_weights_table[1 + 2] = {
  AI_HANDLE_PTR(AI_MAGIC_MARKER),
  AI_HANDLE_PTR(s_rain_detector_model_weights_array_u64),
  AI_HANDLE_PTR(AI_MAGIC_MARKER),
};

