// Automatically generated TFLite INT8 model array
// Model size: 10648 bytes

const unsigned char rain_detector_tflite[] = {
    0x20, 0x00, 0x00, 0x00, 0x54, 0x46, 0x4c, 0x33, 0x00, 0x00, 0x00, 0x00,
    0x14, 0x00, 0x20, 0x00, 0x1c, 0x00, 0x18, 0x00, 0x14, 0x00, 0x10, 0x00,
    0x0c, 0x00, 0x00, 0x00, 0x08, 0x00, 0x04, 0x00, 0x14, 0x00, 0x00, 0x00,
    0x1c, 0x00, 0x00, 0x00, 0x94, 0x00, 0x00, 0x00, 0xec, 0x00, 0x00, 0x00,
    0x2c, 0x0b, 0x00, 0x00, 0x3c, 0x0b, 0x00, 0x00, 0xd8, 0x28, 0x00, 0x00,
    0x03, 0x00, 0x00, 0x00, 0x01, 0x00, 0x00, 0x00, 0x10, 0x00, 0x00, 0x00,
    0x00, 0x00, 0x0a, 0x00, 0x10, 0x00, 0x0c, 0x00, 0x08, 0x00, 0x04, 0x00,
    0x0a, 0x00, 0x00, 0x00, 0x0c, 0x00, 0x00, 0x00, 0x1c, 0x00, 0x00, 0x00,
    0x3c, 0x00, 0x00, 0x00, 0x0f, 0x00, 0x00, 0x00, 0x73, 0x65, 0x72, 0x76,
    0x69, 0x6e, 0x67, 0x5f, 0x64, 0x65, 0x66, 0x61, 0x75, 0x6c, 0x74, 0x00,
    0x01, 0x00, 0x00, 0x00, 0x04, 0x00, 0x00, 0x00, 0x94, 0xff, 0xff, 0xff,
    0x16, 0x00, 0x00, 0x00, 0x04, 0x00, 0x00, 0x00, 0x08, 0x00, 0x00, 0x00,
    0x6f, 0x75, 0x74, 0x70, 0x75, 0x74, 0x5f, 0x30, 0x00, 0x00, 0x00, 0x00,
    0x01, 0x00, 0x00, 0x00, 0x04, 0x00, 0x00, 0x00, 0xb6, 0xf4, 0xff, 0xff,
    0x04, 0x00, 0x00, 0x00, 0x0b, 0x00, 0x00, 0x00, 0x69, 0x6e, 0x70, 0x75,
    0x74, 0x5f, 0x6c, 0x61, 0x79, 0x65, 0x72, 0x00, 0x02, 0x00, 0x00, 0x00,
    0x34, 0x00, 0x00, 0x00, 0x04, 0x00, 0x00, 0x00, 0xdc, 0xff, 0xff, 0xff,
    0x19, 0x00, 0x00, 0x00, 0x04, 0x00, 0x00, 0x00, 0x13, 0x00, 0x00, 0x00,
    0x43, 0x4f, 0x4e, 0x56, 0x45, 0x52, 0x53, 0x49, 0x4f, 0x4e, 0x5f, 0x4d,
    0x45, 0x54, 0x41, 0x44, 0x41, 0x54, 0x41, 0x00, 0x08, 0x00, 0x0c, 0x00,
    0x08, 0x00, 0x04, 0x00, 0x08, 0x00, 0x00, 0x00, 0x18, 0x00, 0x00, 0x00,
    0x04, 0x00, 0x00, 0x00, 0x13, 0x00, 0x00, 0x00, 0x6d, 0x69, 0x6e, 0x5f,
    0x72, 0x75, 0x6e, 0x74, 0x69, 0x6d, 0x65, 0x5f, 0x76, 0x65, 0x72, 0x73,
    0x69, 0x6f, 0x6e, 0x00, 0x1a, 0x00, 0x00, 0x00, 0x3c, 0x0a, 0x00, 0x00,
    0x34, 0x0a, 0x00, 0x00, 0x1c, 0x0a, 0x00, 0x00, 0x04, 0x0a, 0x00, 0x00,
    0xb4, 0x09, 0x00, 0x00, 0x24, 0x09, 0x00, 0x00, 0x14, 0x06, 0x00, 0x00,
    0xa4, 0x05, 0x00, 0x00, 0xbc, 0x04, 0x00, 0x00, 0x4c, 0x04, 0x00, 0x00,
    0xbc, 0x02, 0x00, 0x00, 0x6c, 0x02, 0x00, 0x00, 0xcc, 0x01, 0x00, 0x00,
    0x7c, 0x01, 0x00, 0x00, 0xdc, 0x00, 0x00, 0x00, 0xd4, 0x00, 0x00, 0x00,
    0xcc, 0x00, 0x00, 0x00, 0xc4, 0x00, 0x00, 0x00, 0xbc, 0x00, 0x00, 0x00,
    0xb4, 0x00, 0x00, 0x00, 0xac, 0x00, 0x00, 0x00, 0xa4, 0x00, 0x00, 0x00,
    0x9c, 0x00, 0x00, 0x00, 0x94, 0x00, 0x00, 0x00, 0x74, 0x00, 0x00, 0x00,
    0x04, 0x00, 0x00, 0x00, 0x96, 0xf5, 0xff, 0xff, 0x04, 0x00, 0x00, 0x00,
    0x60, 0x00, 0x00, 0x00, 0x0c, 0x00, 0x00, 0x00, 0x08, 0x00, 0x0e, 0x00,
    0x08, 0x00, 0x04, 0x00, 0x08, 0x00, 0x00, 0x00, 0x10, 0x00, 0x00, 0x00,
    0x28, 0x00, 0x00, 0x00, 0x00, 0x00, 0x06, 0x00, 0x08, 0x00, 0x04, 0x00,
    0x06, 0x00, 0x00, 0x00, 0x04, 0x00, 0x00, 0x00, 0x01, 0x00, 0x00, 0x00,
    0xeb, 0x03, 0x00, 0x00, 0x0c, 0x00, 0x18, 0x00, 0x14, 0x00, 0x10, 0x00,
    0x0c, 0x00, 0x04, 0x00, 0x0c, 0x00, 0x00, 0x00, 0x71, 0x8a, 0x39, 0x68,
    0x57, 0xc1, 0x7c, 0x31, 0x02, 0x00, 0x00, 0x00, 0x02, 0x00, 0x00, 0x00,
    0x04, 0x00, 0x00, 0x00, 0x06, 0x00, 0x00, 0x00, 0x32, 0x2e, 0x32, 0x31,
    0x2e, 0x30, 0x00, 0x00, 0x02, 0xf6, 0xff, 0xff, 0x04, 0x00, 0x00, 0x00,
    0x10, 0x00, 0x00, 0x00, 0x31, 0x2e, 0x31, 0x34, 0x2e, 0x30, 0x00, 0x00,
    0x00, 0x00, 0x00, 0x00, 0x00, 0x00, 0x00, 0x00, 0x00, 0xda, 0xff, 0xff,
    0x04, 0xda, 0xff, 0xff, 0x08, 0xda, 0xff, 0xff, 0x0c, 0xda, 0xff, 0xff,
    0x10, 0xda, 0xff, 0xff, 0x14, 0xda, 0xff, 0xff, 0x18, 0xda, 0xff, 0xff,
    0x1c, 0xda, 0xff, 0xff, 0x20, 0xda, 0xff, 0xff, 0x42, 0xf6, 0xff, 0xff,
    0x04, 0x00, 0x00, 0x00, 0x90, 0x00, 0x00, 0x00, 0x95, 0x7f, 0x2b, 0xe0,
    0x3b, 0x06, 0x33, 0x0c, 0x5d, 0x81, 0x0f, 0xee, 0x92, 0x35, 0xf1, 0x10,
    0xe1, 0x82, 0x00, 0x9f, 0x1c, 0x53, 0x81, 0x56, 0xd8, 0xb2, 0xfe, 0x87,
    0xa7, 0xe5, 0x85, 0x8c, 0xdf, 0x21, 0x81, 0x81, 0xac, 0x9b, 0x12, 0xf6,
    0x81, 0x1a, 0x0e, 0xde, 0xc2, 0x10, 0x72, 0x24, 0x38, 0x7f, 0xe5, 0x12,
    0x6d, 0x4b, 0xee, 0xca, 0xb5, 0xec, 0x81, 0xe0, 0xc8, 0xa4, 0xbc, 0x9d,
    0xfd, 0x6d, 0x81, 0xd0, 0x02, 0x8c, 0xd6, 0x68, 0x37, 0x00, 0x2e, 0x35,
    0xeb, 0x19, 0x7f, 0xcf, 0x4c, 0xb6, 0xda, 0x0a, 0x81, 0x10, 0xf3, 0xcf,
    0x19, 0xe4, 0xcf, 0x28, 0x81, 0xb2, 0x4c, 0x9c, 0xe1, 0x12, 0xd4, 0xff,
    0x12, 0xfb, 0x25, 0x3b, 0xcf, 0x2e, 0x7f, 0xcd, 0x7f, 0x13, 0xee, 0x4c,
    0xdf, 0x15, 0x3f, 0x08, 0x02, 0xde, 0x9b, 0x38, 0x69, 0x81, 0x65, 0x5d,
    0xd3, 0x2b, 0x8a, 0x7f, 0xaf, 0x0a, 0x16, 0xe6, 0x90, 0xb5, 0x07, 0x25,
    0x2c, 0xca, 0x57, 0xf3, 0x81, 0x5e, 0x27, 0x99, 0xde, 0xf6, 0xff, 0xff,
    0x04, 0x00, 0x00, 0x00, 0x40, 0x00, 0x00, 0x00, 0x5f, 0x00, 0x00, 0x00,
    0x41, 0x00, 0x00, 0x00, 0x8d, 0x00, 0x00, 0x00, 0xd1, 0x00, 0x00, 0x00,
    0x93, 0x00, 0x00, 0x00, 0x21, 0xfe, 0xff, 0xff, 0x85, 0x00, 0x00, 0x00,
    0xa7, 0xff, 0xff, 0xff, 0xa0, 0xff, 0xff, 0xff, 0xfb, 0xfe, 0xff, 0xff,
    0x98, 0x00, 0x00, 0x00, 0xf0, 0xff, 0xff, 0xff, 0x81, 0x00, 0x00, 0x00,
    0x18, 0x00, 0x00, 0x00, 0x31, 0x00, 0x00, 0x00, 0x72, 0xff, 0xff, 0xff,
    0x2a, 0xf7, 0xff, 0xff, 0x04, 0x00, 0x00, 0x00, 0x90, 0x00, 0x00, 0x00,
    0x50, 0x7f, 0xdd, 0x74, 0x4a, 0x0a, 0x64, 0x08, 0x40, 0x4f, 0xdc, 0xe9,
    0x83, 0xda, 0x42, 0x61, 0x4a, 0x9f, 0x7f, 0xd9, 0x7f, 0x7f, 0x56, 0x67,
    0xe0, 0x3c, 0xac, 0x30, 0x09, 0x2f, 0xac, 0x7f, 0x02, 0x2b, 0x9b, 0x7f,
    0x05, 0x74, 0xd7, 0x21, 0xda, 0x9f, 0x7f, 0x04, 0x7f, 0x40, 0xc5, 0xfd,
    0x90, 0xd6, 0xb9, 0xe6, 0x25, 0xe5, 0x4d, 0x6e, 0x3f, 0x0d, 0x97, 0x1e,
    0xba, 0x2c, 0x3b, 0xfc, 0x76, 0x42, 0x52, 0xa1, 0x59, 0x30, 0x34, 0x7e,
    0x7f, 0xc2, 0xcb, 0x50, 0xf7, 0xed, 0x4f, 0x62, 0xe0, 0xfd, 0x83, 0x2d,
    0x34, 0x72, 0xf2, 0xd0, 0xff, 0xe4, 0x3b, 0x7f, 0xfb, 0x42, 0x0a, 0x1d,
    0xe0, 0x82, 0xe8, 0xc9, 0xf7, 0x10, 0x7f, 0x7f, 0x60, 0x92, 0x0a, 0xcb,
    0xd4, 0x09, 0x7f, 0x32, 0x7f, 0x17, 0xa6, 0xca, 0x23, 0x67, 0xd5, 0x29,
    0x0f, 0x7f, 0x3a, 0x71, 0x3a, 0x23, 0x21, 0x65, 0xa7, 0x14, 0x60, 0x36,
    0x5b, 0xe2, 0xc5, 0x09, 0xb8, 0x21, 0x02, 0x69, 0xfd, 0x7f, 0x83, 0x2f,
    0xc6, 0xf7, 0xff, 0xff, 0x04, 0x00, 0x00, 0x00, 0x40, 0x00, 0x00, 0x00,
    0x4b, 0x00, 0x00, 0x00, 0x30, 0x00, 0x00, 0x00, 0x4b, 0x02, 0x00, 0x00,
    0x84, 0x00, 0x00, 0x00, 0x75, 0x00, 0x00, 0x00, 0x7e, 0xfd, 0xff, 0xff,
    0x4e, 0x00, 0x00, 0x00, 0xd3, 0xff, 0xff, 0xff, 0x9a, 0x00, 0x00, 0x00,
    0x32, 0x01, 0x00, 0x00, 0xef, 0x00, 0x00, 0x00, 0x12, 0x00, 0x00, 0x00,
    0xd5, 0x00, 0x00, 0x00, 0xfe, 0xff, 0xff, 0xff, 0x60, 0xfe, 0xff, 0xff,
    0xea, 0xfe, 0xff, 0xff, 0x12, 0xf8, 0xff, 0xff, 0x04, 0x00, 0x00, 0x00,
    0x80, 0x01, 0x00, 0x00, 0xc5, 0x77, 0xc1, 0x13, 0x81, 0x0e, 0xf1, 0x55,
    0xe3, 0xeb, 0xec, 0xb6, 0xe3, 0x74, 0x46, 0xce, 0x0a, 0x4e, 0x81, 0x16,
    0xb3, 0x44, 0x34, 0xfc, 0xa1, 0xcc, 0xc4, 0xc3, 0xe8, 0x40, 0x2c, 0x78,
    0xb3, 0xfa, 0xef, 0x4b, 0xf7, 0x4d, 0x81, 0x3b, 0xa8, 0xb0, 0x1a, 0x09,
    0xb0, 0x2c, 0xd8, 0x3f, 0x1d, 0x60, 0x39, 0x7c, 0xc7, 0x9a, 0xbd, 0x02,
    0x78, 0x7f, 0x42, 0x70, 0xb5, 0x23, 0x45, 0xb6, 0xe0, 0x2f, 0x34, 0x6d,
    0xfd, 0x81, 0x4d, 0xc9, 0xb6, 0x68, 0x3d, 0x11, 0xe5, 0x20, 0xf0, 0xf5,
    0x91, 0x20, 0x1d, 0x8c, 0x98, 0xbf, 0xa8, 0xc3, 0x41, 0xb6, 0xfa, 0xd3,
    0x81, 0x38, 0xfb, 0x3a, 0x2e, 0x7f, 0xcb, 0xaf, 0xf8, 0xbe, 0x0a, 0x20,
    0xfb, 0xc5, 0xd8, 0xd2, 0x08, 0x08, 0x36, 0xf8, 0x64, 0xbe, 0xd3, 0x0c,
    0x0c, 0x1b, 0xca, 0x15, 0x8b, 0x29, 0x5b, 0x58, 0xdc, 0xa3, 0x2d, 0x7f,
    0xc4, 0xe9, 0x40, 0xb6, 0x9d, 0x97, 0x81, 0x46, 0xc1, 0x58, 0x17, 0xd3,
    0xf7, 0x37, 0x35, 0xeb, 0x0d, 0xf7, 0x5c, 0x84, 0x81, 0x8d, 0x58, 0x49,
    0x72, 0xba, 0x56, 0x0a, 0xc5, 0xf0, 0x49, 0x0f, 0xd8, 0x81, 0x67, 0x4e,
    0xf4, 0x36, 0x59, 0x41, 0x4e, 0xed, 0xde, 0x30, 0x46, 0xca, 0xdf, 0x13,
    0xe0, 0x7f, 0xa5, 0x93, 0xb0, 0x04, 0x0f, 0x32, 0xdf, 0x32, 0x6b, 0xaa,
    0xce, 0xe6, 0x48, 0xfe, 0x9a, 0x9e, 0x1e, 0x8d, 0xd7, 0xfa, 0xc6, 0xe0,
    0x81, 0xa8, 0xd1, 0x19, 0x8b, 0x9b, 0x4c, 0x93, 0x5a, 0x81, 0xb8, 0xb2,
    0x2f, 0x17, 0xe2, 0x4a, 0x36, 0x7d, 0x9b, 0xe5, 0xe9, 0xc4, 0xe5, 0x0e,
    0xea, 0xe8, 0xcb, 0x29, 0xf5, 0xf3, 0xb1, 0xec, 0xc7, 0x3d, 0xe4, 0x35,
    0x03, 0x39, 0x64, 0x7f, 0x9d, 0x7c, 0xb3, 0x15, 0x55, 0xae, 0x24, 0x16,
    0x04, 0xb4, 0x07, 0xfe, 0xf1, 0x7f, 0xcc, 0x5a, 0xb8, 0x24, 0xec, 0xbd,
    0xa1, 0xc8, 0x0d, 0xd2, 0x3f, 0xed, 0x5c, 0x1c, 0xb9, 0xbb, 0x7f, 0x67,
    0xa9, 0x06, 0x81, 0xf3, 0xdf, 0x26, 0xcc, 0x0a, 0xba, 0x04, 0xf1, 0xa6,
    0x41, 0x4d, 0x59, 0x56, 0x11, 0x7a, 0x44, 0x34, 0x3b, 0x93, 0xf0, 0xaa,
    0x55, 0x7a, 0x37, 0x42, 0x81, 0x71, 0x38, 0x0d, 0x65, 0x71, 0x5a, 0x69,
    0x0e, 0xf6, 0x81, 0xde, 0x10, 0x10, 0x6c, 0x2d, 0x43, 0x26, 0x58, 0xd0,
    0x9e, 0x3d, 0x3e, 0xe2, 0xdb, 0xaf, 0xd8, 0xa9, 0xe9, 0x15, 0x49, 0xc3,
    0x09, 0xeb, 0xc5, 0x81, 0xe0, 0x0a, 0x15, 0xfc, 0x6a, 0x03, 0x1a, 0x2e,
    0x41, 0x02, 0x7f, 0xe9, 0xb9, 0xe9, 0xce, 0xb4, 0xc4, 0x4b, 0x60, 0x7f,
    0x05, 0xf3, 0x54, 0xd0, 0x82, 0x2d, 0xf7, 0x41, 0xf9, 0xe5, 0xd5, 0x32,
    0x36, 0x42, 0x1d, 0xd0, 0xef, 0x81, 0x17, 0x1b, 0x48, 0x4a, 0x1a, 0xdf,
    0xff, 0xd6, 0xef, 0xc8, 0x9e, 0xf9, 0xff, 0xff, 0x04, 0x00, 0x00, 0x00,
    0x60, 0x00, 0x00, 0x00, 0xfc, 0xff, 0xff, 0xff, 0x30, 0xff, 0xff, 0xff,
    0xf7, 0xff, 0xff, 0xff, 0x2e, 0x00, 0x00, 0x00, 0x33, 0x00, 0x00, 0x00,
    0x70, 0xff, 0xff, 0xff, 0xdd, 0xff, 0xff, 0xff, 0xc6, 0xff, 0xff, 0xff,
    0x4a, 0x00, 0x00, 0x00, 0xc1, 0xff, 0xff, 0xff, 0x29, 0x00, 0x00, 0x00,
    0xa9, 0xff, 0xff, 0xff, 0x11, 0x00, 0x00, 0x00, 0x6f, 0x01, 0x00, 0x00,
    0xd3, 0x00, 0x00, 0x00, 0x5d, 0x00, 0x00, 0x00, 0x0a, 0xff, 0xff, 0xff,
    0x44, 0xff, 0xff, 0xff, 0x83, 0x00, 0x00, 0x00, 0x38, 0x00, 0x00, 0x00,
    0x94, 0x00, 0x00, 0x00, 0xe0, 0xff, 0xff, 0xff, 0xd1, 0xff, 0xff, 0xff,
    0x80, 0xff, 0xff, 0xff, 0x0a, 0xfa, 0xff, 0xff, 0x04, 0x00, 0x00, 0x00,
    0xd8, 0x00, 0x00, 0x00, 0xdf, 0x81, 0x8d, 0x6c, 0x2e, 0xfb, 0x78, 0x18,
    0x40, 0x95, 0xdf, 0x4c, 0x34, 0x81, 0x74, 0x33, 0x0c, 0x11, 0x3f, 0xf5,
    0x6b, 0xab, 0xd6, 0x7f, 0x6e, 0x2c, 0x81, 0xf7, 0x60, 0x7f, 0x29, 0xb7,
    0x49, 0x7f, 0x62, 0xed, 0xc7, 0xc1, 0xbe, 0x39, 0xa7, 0x81, 0x2e, 0xe7,
    0x7f, 0xec, 0x81, 0xfc, 0x7f, 0x9c, 0xa3, 0x39, 0x63, 0x71, 0x73, 0x8f,
    0x57, 0x97, 0x7e, 0xed, 0x49, 0x3b, 0xfd, 0x4e, 0x53, 0x8e, 0x4b, 0x7f,
    0x07, 0x2a, 0x13, 0xf8, 0x6a, 0xc6, 0xc5, 0x6a, 0x32, 0x52, 0x7b, 0x08,
    0x26, 0x91, 0x64, 0x3c, 0x93, 0x8e, 0x7f, 0xdf, 0x13, 0x07, 0x1c, 0x20,
    0x26, 0xf8, 0x1f, 0xe5, 0x0c, 0xed, 0x93, 0x7f, 0x37, 0x30, 0x7f, 0xc1,
    0x68, 0xff, 0xe6, 0x13, 0xee, 0xc7, 0x12, 0x0f, 0x92, 0x97, 0x4b, 0x00,
    0x6f, 0xa5, 0x97, 0x38, 0x43, 0x99, 0xc8, 0x4f, 0x31, 0x76, 0xec, 0x81,
    0x03, 0x8c, 0x1c, 0xef, 0xbe, 0x3c, 0x1e, 0x7f, 0x7f, 0xd0, 0x63, 0x55,
    0x40, 0x7f, 0x43, 0x1c, 0x26, 0x94, 0x9a, 0x48, 0xf5, 0x3f, 0x37, 0x24,
    0x7f, 0x48, 0x67, 0xe6, 0x81, 0x92, 0x6c, 0x92, 0x22, 0x12, 0xd4, 0x59,
    0x24, 0x6a, 0x7f, 0x9b, 0x0e, 0x25, 0x88, 0x39, 0x36, 0x7f, 0x0b, 0xa6,
    0xfc, 0x4f, 0xf8, 0x1d, 0x93, 0xba, 0x26, 0xf7, 0x91, 0xa8, 0x57, 0x44,
    0x72, 0xa5, 0xd7, 0xfc, 0x63, 0xc0, 0xa3, 0x41, 0x7f, 0x70, 0x3a, 0x8b,
    0x7a, 0xed, 0x7f, 0x7f, 0x87, 0x1a, 0xd4, 0x72, 0x73, 0x99, 0x7f, 0x59,
    0x3f, 0x33, 0x42, 0x1a, 0xee, 0xfa, 0xff, 0xff, 0x04, 0x00, 0x00, 0x00,
    0x60, 0x00, 0x00, 0x00, 0xd5, 0xff, 0xff, 0xff, 0x9a, 0x01, 0x00, 0x00,
    0xfb, 0x01, 0x00, 0x00, 0x37, 0x00, 0x00, 0x00, 0x41, 0x00, 0x00, 0x00,
    0xf8, 0xff, 0xff, 0xff, 0xbf, 0xff, 0xff, 0xff, 0x5d, 0x01, 0x00, 0x00,
    0x09, 0x00, 0x00, 0x00, 0x4e, 0xff, 0xff, 0xff, 0xba, 0x00, 0x00, 0x00,
    0x44, 0xff, 0xff, 0xff, 0xee, 0xff, 0xff, 0xff, 0xd9, 0x00, 0x00, 0x00,
    0x2f, 0x00, 0x00, 0x00, 0x67, 0x00, 0x00, 0x00, 0x29, 0xff, 0xff, 0xff,
    0x6a, 0x01, 0x00, 0x00, 0x81, 0x00, 0x00, 0x00, 0x9f, 0x00, 0x00, 0x00,
    0x63, 0x00, 0x00, 0x00, 0x32, 0x00, 0x00, 0x00, 0xd8, 0xff, 0xff, 0xff,
    0x79, 0xff, 0xff, 0xff, 0x5a, 0xfb, 0xff, 0xff, 0x04, 0x00, 0x00, 0x00,
    0x00, 0x03, 0x00, 0x00, 0xde, 0xeb, 0x89, 0x3e, 0x03, 0xa5, 0x34, 0xd3,
    0x61, 0xdc, 0x22, 0xfb, 0xe7, 0xda, 0x0e, 0x41, 0x81, 0xc5, 0x2b, 0x50,
    0xe2, 0x71, 0x5c, 0x38, 0x09, 0x9f, 0xbc, 0xd4, 0x84, 0xbb, 0x25, 0x42,
    0x5f, 0x27, 0x8e, 0x30, 0xbf, 0xd0, 0xd4, 0x85, 0x61, 0x31, 0xa6, 0x22,
    0xf0, 0x21, 0x81, 0xff, 0x23, 0xca, 0x81, 0x13, 0x36, 0xc8, 0x2b, 0xde,
    0x41, 0x11, 0xf3, 0x21, 0xdb, 0xd1, 0x0e, 0xec, 0xcd, 0x99, 0x30, 0x48,
    0x1b, 0x7c, 0x16, 0x30, 0xff, 0xe9, 0x8e, 0xcb, 0x02, 0x0e, 0xce, 0xd2,
    0x6a, 0x3a, 0x13, 0xdd, 0x03, 0xe3, 0x20, 0x5a, 0x81, 0xed, 0x4b, 0x23,
    0xc8, 0x28, 0x79, 0x3c, 0x31, 0x7f, 0x59, 0xfa, 0x04, 0x28, 0x14, 0x4a,
    0xd1, 0xe2, 0x53, 0xe3, 0x3c, 0x40, 0xcd, 0xec, 0x3d, 0x0b, 0x06, 0xe6,
    0x1f, 0xc4, 0xd7, 0x1b, 0x30, 0x97, 0xd0, 0x4d, 0x44, 0xf2, 0x21, 0x97,
    0x7f, 0x2e, 0xdd, 0x23, 0xe1, 0xe9, 0x0e, 0x0c, 0xc1, 0x09, 0xf2, 0x27,
    0xea, 0x5b, 0x78, 0x33, 0x22, 0xd4, 0x97, 0x36, 0x40, 0xe8, 0x1f, 0xa6,
    0x57, 0xe3, 0xdc, 0xef, 0xcd, 0xd0, 0x1d, 0x20, 0xcd, 0x00, 0xf7, 0xee,
    0xd7, 0x7f, 0x6f, 0x17, 0xe3, 0x20, 0x7f, 0xb8, 0xfd, 0xee, 0x27, 0x62,
    0xa4, 0xd0, 0x25, 0xe1, 0xe4, 0x73, 0x11, 0xe1, 0x1a, 0x31, 0x18, 0x1b,
    0x35, 0xb5, 0xf1, 0x2e, 0x1b, 0xbf, 0x96, 0x33, 0xee, 0xff, 0x24, 0xbe,
    0x5e, 0xf0, 0x2b, 0x12, 0x22, 0xf2, 0x07, 0x3f, 0x81, 0xe8, 0x12, 0xfc,
    0xd5, 0x3e, 0x61, 0xf0, 0xe7, 0x36, 0x46, 0x27, 0x30, 0xf2, 0x1b, 0x7f,
    0xfa, 0xe3, 0xd6, 0xcb, 0x01, 0x1e, 0x32, 0xbe, 0x70, 0x59, 0xfd, 0x08,
    0x38, 0xa5, 0xc6, 0xe3, 0xdf, 0xba, 0x82, 0x02, 0x24, 0xc4, 0xf1, 0x81,
    0x5e, 0x40, 0xdb, 0x3a, 0xc4, 0xae, 0x1a, 0x42, 0x9a, 0xa5, 0x35, 0x31,
    0x10, 0x57, 0x7a, 0x58, 0x04, 0xc2, 0x90, 0x3f, 0x1e, 0xac, 0xef, 0xb9,
    0x29, 0xed, 0xcc, 0xe0, 0x12, 0x82, 0x0f, 0x32, 0x8a, 0x00, 0x39, 0x0d,
    0x23, 0x7f, 0x25, 0x48, 0x9b, 0x6b, 0x7f, 0xa6, 0xc8, 0xcc, 0xe3, 0x55,
    0xc6, 0x13, 0xbf, 0x12, 0x9a, 0x2f, 0xc4, 0xde, 0xe5, 0x36, 0xda, 0x98,
    0x92, 0x8f, 0xfa, 0x0c, 0x48, 0x85, 0xda, 0xff, 0x44, 0xd3, 0x05, 0xdb,
    0x13, 0x30, 0xdc, 0x49, 0x0e, 0xa8, 0x27, 0x38, 0x81, 0x91, 0x3b, 0x49,
    0xfa, 0x79, 0x4f, 0x56, 0xfe, 0xef, 0x81, 0xf3, 0x28, 0xc7, 0xf8, 0xae,
    0x65, 0x16, 0xef, 0x3b, 0x19, 0xc3, 0x27, 0x0f, 0xa7, 0xe9, 0x3a, 0xee,
    0xe9, 0x16, 0x55, 0x38, 0x30, 0x94, 0xa8, 0x12, 0x0a, 0x06, 0x3e, 0xd1,
    0x18, 0xf9, 0x38, 0x38, 0x3b, 0x81, 0xfe, 0x52, 0x86, 0xe1, 0x20, 0x2e,
    0xc0, 0x28, 0x54, 0x46, 0x39, 0xd4, 0x9a, 0x3a, 0x4b, 0xab, 0x3a, 0xa6,
    0x44, 0xf4, 0xcb, 0x45, 0xd3, 0x81, 0x26, 0x44, 0xcf, 0xa1, 0xfb, 0x40,
    0x10, 0x46, 0x46, 0x33, 0x48, 0x89, 0x81, 0xf1, 0x4e, 0xea, 0x37, 0xea,
    0x11, 0xf8, 0x15, 0xf2, 0x05, 0x91, 0x32, 0x4b, 0xb3, 0xb7, 0x0e, 0x04,
    0xd8, 0x26, 0x3d, 0x2c, 0xfb, 0x23, 0x7f, 0xf7, 0xfe, 0x0e, 0x2f, 0x58,
    0xf8, 0x18, 0x2e, 0xdd, 0xe2, 0xcb, 0x3d, 0xf6, 0xf0, 0x4a, 0xd7, 0xd7,
    0xf0, 0xf8, 0x09, 0x13, 0xd7, 0x7f, 0x45, 0xed, 0xde, 0x35, 0x13, 0x39,
    0xa4, 0xff, 0x29, 0x0c, 0xf9, 0x60, 0xad, 0x08, 0x5a, 0x3a, 0x56, 0x06,
    0x3d, 0xc4, 0xe9, 0xe4, 0x1b, 0xc9, 0x11, 0xe2, 0xe0, 0xe6, 0xfe, 0x81,
    0x25, 0x13, 0x49, 0xfc, 0x32, 0x94, 0x42, 0x6f, 0x92, 0xc1, 0xf8, 0x2f,
    0x15, 0x21, 0x18, 0xee, 0xac, 0x10, 0x1f, 0xda, 0x88, 0x55, 0xe3, 0x8f,
    0xd1, 0x33, 0x81, 0x2d, 0x00, 0x24, 0xf5, 0x89, 0xe0, 0x9d, 0xf4, 0xda,
    0x17, 0x5f, 0x27, 0xe0, 0x3c, 0xcc, 0x81, 0x68, 0xc5, 0x30, 0x7e, 0x54,
    0x79, 0xf7, 0x9f, 0x7f, 0x3a, 0xf3, 0xb2, 0x3f, 0x8a, 0xf1, 0xd4, 0x41,
    0xd4, 0x3e, 0x2c, 0x7a, 0x3e, 0xf3, 0x81, 0xff, 0x00, 0xab, 0xfb, 0xbe,
    0x5f, 0x16, 0xe9, 0x2b, 0xdf, 0xd4, 0x0f, 0x14, 0xc8, 0xd3, 0x30, 0x25,
    0xef, 0x53, 0x72, 0x0b, 0x39, 0xc4, 0xca, 0xd8, 0x0d, 0x23, 0xf3, 0x52,
    0x2b, 0xa0, 0xc3, 0x3f, 0xd7, 0x52, 0x3b, 0x4f, 0x7f, 0xea, 0xd3, 0xd3,
    0xd5, 0xb0, 0xac, 0x23, 0xf8, 0x6c, 0x4d, 0x29, 0x2d, 0x63, 0x02, 0x15,
    0xd8, 0x01, 0x23, 0xfa, 0x30, 0x52, 0xa4, 0x12, 0x7f, 0x4e, 0xfc, 0xed,
    0xfd, 0xab, 0xbf, 0xec, 0x2a, 0xb1, 0x81, 0x06, 0x02, 0xdb, 0x34, 0xb6,
    0x15, 0x27, 0x14, 0xf7, 0xdd, 0xb3, 0x27, 0x31, 0xd3, 0xb5, 0x0d, 0x32,
    0x09, 0x4e, 0x27, 0x3f, 0x1a, 0x0f, 0x3f, 0xea, 0xef, 0x39, 0xd6, 0x3a,
    0x0b, 0xde, 0x3d, 0x07, 0xe9, 0x3a, 0xff, 0x11, 0x7f, 0x20, 0x0f, 0x2d,
    0x3e, 0xe9, 0xd9, 0xeb, 0xe3, 0xb7, 0x90, 0x3f, 0x09, 0x96, 0x29, 0x04,
    0x21, 0xeb, 0x12, 0x47, 0x2c, 0xc0, 0xf7, 0x1a, 0xf0, 0xe2, 0x04, 0x04,
    0x28, 0x7f, 0x54, 0x53, 0x24, 0xc2, 0xb2, 0x2e, 0x1e, 0xc3, 0x37, 0xbb,
    0x56, 0x16, 0xe2, 0x2b, 0xca, 0xc1, 0x41, 0x30, 0xb8, 0xb2, 0x11, 0xf1,
    0x02, 0x45, 0x7f, 0x08, 0x13, 0x6f, 0x5d, 0x0b, 0xda, 0x19, 0xf1, 0x51,
    0xbf, 0xca, 0x0b, 0xfc, 0xd7, 0x7f, 0x17, 0xfd, 0xfc, 0x40, 0xff, 0x25,
    0x4b, 0xb3, 0x9b, 0xeb, 0xc2, 0x36, 0x4d, 0xdf, 0xf2, 0x3b, 0x04, 0x5e,
    0xf4, 0xd2, 0x28, 0xba, 0xdf, 0x76, 0x00, 0xc2, 0x53, 0x31, 0x41, 0x25,
    0xed, 0xb6, 0x81, 0x15, 0x66, 0xfe, 0xff, 0xff, 0x04, 0x00, 0x00, 0x00,
    0x80, 0x00, 0x00, 0x00, 0x1a, 0x00, 0x00, 0x00, 0x4d, 0x00, 0x00, 0x00,
    0x5c, 0x00, 0x00, 0x00, 0xcc, 0xff, 0xff, 0xff, 0x64, 0x01, 0x00, 0x00,
    0x85, 0x01, 0x00, 0x00, 0x41, 0x01, 0x00, 0x00, 0x35, 0x01, 0x00, 0x00,
    0x05, 0x01, 0x00, 0x00, 0xa7, 0x00, 0x00, 0x00, 0xa7, 0x01, 0x00, 0x00,
    0x82, 0x00, 0x00, 0x00, 0x8b, 0x00, 0x00, 0x00, 0x84, 0x00, 0x00, 0x00,
    0x0a, 0x01, 0x00, 0x00, 0x2c, 0x00, 0x00, 0x00, 0x86, 0x00, 0x00, 0x00,
    0xb9, 0x00, 0x00, 0x00, 0x0e, 0x01, 0x00, 0x00, 0x86, 0x01, 0x00, 0x00,
    0x07, 0x02, 0x00, 0x00, 0x5f, 0xff, 0xff, 0xff, 0x78, 0xff, 0xff, 0xff,
    0x65, 0x01, 0x00, 0x00, 0x6b, 0xfe, 0xff, 0xff, 0x86, 0x01, 0x00, 0x00,
    0x7d, 0x01, 0x00, 0x00, 0x91, 0x00, 0x00, 0x00, 0xf9, 0x00, 0x00, 0x00,
    0xe0, 0x01, 0x00, 0x00, 0xac, 0x00, 0x00, 0x00, 0xf4, 0x00, 0x00, 0x00,
    0xf2, 0xfe, 0xff, 0xff, 0x04, 0x00, 0x00, 0x00, 0x40, 0x00, 0x00, 0x00,
    0x47, 0xf0, 0x3d, 0x1d, 0x91, 0x1e, 0x62, 0x97, 0x63, 0xed, 0x61, 0x53,
    0x30, 0x59, 0x70, 0x4c, 0x6b, 0x0b, 0xa2, 0xcd, 0x00, 0x05, 0x1f, 0x4d,
    0xb6, 0x81, 0x51, 0xb1, 0x59, 0x7b, 0x97, 0xcb, 0xd0, 0x06, 0xd5, 0xc9,
    0x77, 0xa1, 0xa4, 0x6f, 0xcf, 0x3c, 0xaf, 0xb5, 0xad, 0x90, 0xbc, 0xe7,
    0xab, 0x8a, 0x1f, 0x7f, 0x9a, 0xee, 0xef, 0xe8, 0x42, 0x62, 0xb0, 0x47,
    0xba, 0x89, 0x61, 0x3a, 0x3e, 0xff, 0xff, 0xff, 0x04, 0x00, 0x00, 0x00,
    0x08, 0x00, 0x00, 0x00, 0x4e, 0xfe, 0xff, 0xff, 0xd0, 0x01, 0x00, 0x00,
    0x52, 0xff, 0xff, 0xff, 0x04, 0x00, 0x00, 0x00, 0x08, 0x00, 0x00, 0x00,
    0x01, 0x00, 0x00, 0x00, 0x02, 0x00, 0x00, 0x00, 0x48, 0xe3, 0xff, 0xff,
    0x4c, 0xe3, 0xff, 0xff, 0x0f, 0x00, 0x00, 0x00, 0x4d, 0x4c, 0x49, 0x52,
    0x20, 0x43, 0x6f, 0x6e, 0x76, 0x65, 0x72, 0x74, 0x65, 0x64, 0x2e, 0x00,
    0x01, 0x00, 0x00, 0x00, 0x14, 0x00, 0x00, 0x00, 0x00, 0x00, 0x0e, 0x00,
    0x18, 0x00, 0x14, 0x00, 0x10, 0x00, 0x0c, 0x00, 0x08, 0x00, 0x04, 0x00,
    0x0e, 0x00, 0x00, 0x00, 0x14, 0x00, 0x00, 0x00, 0x1c, 0x00, 0x00, 0x00,
    0xc8, 0x02, 0x00, 0x00, 0xcc, 0x02, 0x00, 0x00, 0xd0, 0x02, 0x00, 0x00,
    0x04, 0x00, 0x00, 0x00, 0x6d, 0x61, 0x69, 0x6e, 0x00, 0x00, 0x00, 0x00,
    0x09, 0x00, 0x00, 0x00, 0x64, 0x02, 0x00, 0x00, 0xfc, 0x01, 0x00, 0x00,
    0x9c, 0x01, 0x00, 0x00, 0x48, 0x01, 0x00, 0x00, 0x00, 0x01, 0x00, 0x00,
    0xac, 0x00, 0x00, 0x00, 0x78, 0x00, 0x00, 0x00, 0x40, 0x00, 0x00, 0x00,
    0x04, 0x00, 0x00, 0x00, 0x32, 0xfe, 0xff, 0xff, 0x1c, 0x00, 0x00, 0x00,
    0x00, 0x00, 0x00, 0x09, 0x1c, 0x00, 0x00, 0x00, 0x20, 0x00, 0x00, 0x00,
    0x05, 0x00, 0x00, 0x00, 0x00, 0x00, 0x06, 0x00, 0x08, 0x00, 0x04, 0x00,
    0x06, 0x00, 0x00, 0x00, 0x00, 0x00, 0x80, 0x3f, 0x01, 0x00, 0x00, 0x00,
    0x16, 0x00, 0x00, 0x00, 0x01, 0x00, 0x00, 0x00, 0x15, 0x00, 0x00, 0x00,
    0x5a, 0xff, 0xff, 0xff, 0x14, 0x00, 0x00, 0x00, 0x00, 0x00, 0x00, 0x08,
    0x10, 0x00, 0x00, 0x00, 0x14, 0x00, 0x00, 0x00, 0x04, 0x00, 0x00, 0x00,
    0x18, 0xe4, 0xff, 0xff, 0x01, 0x00, 0x00, 0x00, 0x15, 0x00, 0x00, 0x00,
    0x03, 0x00, 0x00, 0x00, 0x14, 0x00, 0x00, 0x00, 0x03, 0x00, 0x00, 0x00,
    0x02, 0x00, 0x00, 0x00, 0x8e, 0xff, 0xff, 0xff, 0x14, 0x00, 0x00, 0x00,
    0x00, 0x00, 0x00, 0x1b, 0x10, 0x00, 0x00, 0x00, 0x14, 0x00, 0x00, 0x00,
    0x03, 0x00, 0x00, 0x00, 0x4c, 0xe4, 0xff, 0xff, 0x01, 0x00, 0x00, 0x00,
    0x14, 0x00, 0x00, 0x00, 0x02, 0x00, 0x00, 0x00, 0x13, 0x00, 0x00, 0x00,
    0x01, 0x00, 0x00, 0x00, 0x6a, 0xfe, 0xff, 0xff, 0x10, 0x00, 0x00, 0x00,
    0x00, 0x00, 0x00, 0x01, 0x1c, 0x00, 0x00, 0x00, 0x20, 0x00, 0x00, 0x00,
    0x1c, 0xff, 0xff, 0xff, 0x00, 0x00, 0x00, 0x01, 0x01, 0x00, 0x00, 0x00,
    0x01, 0x00, 0x00, 0x00, 0x00, 0x00, 0x00, 0x01, 0x01, 0x00, 0x00, 0x00,
    0x13, 0x00, 0x00, 0x00, 0x03, 0x00, 0x00, 0x00, 0x12, 0x00, 0x00, 0x00,
    0x05, 0x00, 0x00, 0x00, 0x04, 0x00, 0x00, 0x00, 0x00, 0x00, 0x0e, 0x00,
    0x18, 0x00, 0x14, 0x00, 0x10, 0x00, 0x0c, 0x00, 0x0b, 0x00, 0x04, 0x00,
    0x0e, 0x00, 0x00, 0x00, 0x14, 0x00, 0x00, 0x00, 0x00, 0x00, 0x00, 0x02,
    0x20, 0x00, 0x00, 0x00, 0x24, 0x00, 0x00, 0x00, 0x01, 0x00, 0x00, 0x00,
    0x0e, 0xff, 0xff, 0xff, 0x00, 0x00, 0x00, 0x01, 0x01, 0x00, 0x00, 0x00,
    0x01, 0x00, 0x00, 0x00, 0x01, 0x00, 0x00, 0x00, 0x01, 0x00, 0x00, 0x00,
    0x12, 0x00, 0x00, 0x00, 0x03, 0x00, 0x00, 0x00, 0x11, 0x00, 0x00, 0x00,
    0x07, 0x00, 0x00, 0x00, 0x06, 0x00, 0x00, 0x00, 0x62, 0xff, 0xff, 0xff,
    0x24, 0x00, 0x00, 0x00, 0x00, 0x00, 0x00, 0x05, 0x34, 0x00, 0x00, 0x00,
    0x38, 0x00, 0x00, 0x00, 0x02, 0x00, 0x00, 0x00, 0x00, 0x00, 0x0e, 0x00,
    0x18, 0x00, 0x17, 0x00, 0x10, 0x00, 0x0c, 0x00, 0x08, 0x00, 0x04, 0x00,
    0x0e, 0x00, 0x00, 0x00, 0x02, 0x00, 0x00, 0x00, 0x02, 0x00, 0x00, 0x00,
    0x02, 0x00, 0x00, 0x00, 0x02, 0x00, 0x00, 0x00, 0x00, 0x00, 0x00, 0x01,
    0x01, 0x00, 0x00, 0x00, 0x11, 0x00, 0x00, 0x00, 0x01, 0x00, 0x00, 0x00,
    0x10, 0x00, 0x00, 0x00, 0x4e, 0xff, 0xff, 0xff, 0x1c, 0x00, 0x00, 0x00,
    0x00, 0x00, 0x00, 0x01, 0x28, 0x00, 0x00, 0x00, 0x2c, 0x00, 0x00, 0x00,
    0x0c, 0x00, 0x14, 0x00, 0x13, 0x00, 0x0c, 0x00, 0x08, 0x00, 0x07, 0x00,
    0x0c, 0x00, 0x00, 0x00, 0x00, 0x00, 0x00, 0x01, 0x01, 0x00, 0x00, 0x00,
    0x01, 0x00, 0x00, 0x00, 0x00, 0x00, 0x00, 0x01, 0x01, 0x00, 0x00, 0x00,
    0x10, 0x00, 0x00, 0x00, 0x03, 0x00, 0x00, 0x00, 0x0f, 0x00, 0x00, 0x00,
    0x09, 0x00, 0x00, 0x00, 0x08, 0x00, 0x00, 0x00, 0x00, 0x00, 0x0e, 0x00,
    0x1a, 0x00, 0x14, 0x00, 0x10, 0x00, 0x0c, 0x00, 0x0b, 0x00, 0x04, 0x00,
    0x0e, 0x00, 0x00, 0x00, 0x24, 0x00, 0x00, 0x00, 0x00, 0x00, 0x00, 0x02,
    0x30, 0x00, 0x00, 0x00, 0x34, 0x00, 0x00, 0x00, 0x01, 0x00, 0x00, 0x00,
    0x00, 0x00, 0x0e, 0x00, 0x14, 0x00, 0x00, 0x00, 0x10, 0x00, 0x0c, 0x00,
    0x08, 0x00, 0x07, 0x00, 0x0e, 0x00, 0x00, 0x00, 0x00, 0x00, 0x00, 0x01,
    0x01, 0x00, 0x00, 0x00, 0x01, 0x00, 0x00, 0x00, 0x01, 0x00, 0x00, 0x00,
    0x01, 0x00, 0x00, 0x00, 0x0f, 0x00, 0x00, 0x00, 0x03, 0x00, 0x00, 0x00,
    0x0e, 0x00, 0x00, 0x00, 0x0b, 0x00, 0x00, 0x00, 0x0a, 0x00, 0x00, 0x00,
    0x00, 0x00, 0x0e, 0x00, 0x14, 0x00, 0x00, 0x00, 0x10, 0x00, 0x0c, 0x00,
    0x0b, 0x00, 0x04, 0x00, 0x0e, 0x00, 0x00, 0x00, 0x1c, 0x00, 0x00, 0x00,
    0x00, 0x00, 0x00, 0x01, 0x24, 0x00, 0x00, 0x00, 0x28, 0x00, 0x00, 0x00,
    0x0c, 0x00, 0x10, 0x00, 0x00, 0x00, 0x0c, 0x00, 0x08, 0x00, 0x07, 0x00,
    0x0c, 0x00, 0x00, 0x00, 0x00, 0x00, 0x00, 0x01, 0x01, 0x00, 0x00, 0x00,
    0x01, 0x00, 0x00, 0x00, 0x01, 0x00, 0x00, 0x00, 0x0e, 0x00, 0x00, 0x00,
    0x03, 0x00, 0x00, 0x00, 0x00, 0x00, 0x00, 0x00, 0x0d, 0x00, 0x00, 0x00,
    0x0c, 0x00, 0x00, 0x00, 0x01, 0x00, 0x00, 0x00, 0x16, 0x00, 0x00, 0x00,
    0x01, 0x00, 0x00, 0x00, 0x00, 0x00, 0x00, 0x00, 0x17, 0x00, 0x00, 0x00,
    0x08, 0x1a, 0x00, 0x00, 0x7c, 0x19, 0x00, 0x00, 0xec, 0x18, 0x00, 0x00,
    0x70, 0x18, 0x00, 0x00, 0x2c, 0x16, 0x00, 0x00, 0x38, 0x14, 0x00, 0x00,
    0x2c, 0x12, 0x00, 0x00, 0x78, 0x10, 0x00, 0x00, 0x7c, 0x0e, 0x00, 0x00,
    0xe8, 0x0c, 0x00, 0x00, 0x44, 0x0b, 0x00, 0x00, 0x04, 0x0a, 0x00, 0x00,
    0x84, 0x08, 0x00, 0x00, 0x50, 0x07, 0x00, 0x00, 0x64, 0x06, 0x00, 0x00,
    0x50, 0x05, 0x00, 0x00, 0x5c, 0x04, 0x00, 0x00, 0xc0, 0x03, 0x00, 0x00,
    0xa4, 0x02, 0x00, 0x00, 0xb0, 0x01, 0x00, 0x00, 0x1c, 0x01, 0x00, 0x00,
    0x80, 0x00, 0x00, 0x00, 0x04, 0x00, 0x00, 0x00, 0x6a, 0xe6, 0xff, 0xff,
    0x00, 0x00, 0x00, 0x01, 0x18, 0x00, 0x00, 0x00, 0x20, 0x00, 0x00, 0x00,
    0x3c, 0x00, 0x00, 0x00, 0x17, 0x00, 0x00, 0x00, 0x00, 0x00, 0x00, 0x09,
    0x50, 0x00, 0x00, 0x00, 0x02, 0x00, 0x00, 0x00, 0xff, 0xff, 0xff, 0xff,
    0x02, 0x00, 0x00, 0x00, 0x4c, 0xe6, 0xff, 0xff, 0x08, 0x00, 0x00, 0x00,
    0x10, 0x00, 0x00, 0x00, 0x01, 0x00, 0x00, 0x00, 0x80, 0xff, 0xff, 0xff,
    0xff, 0xff, 0xff, 0xff, 0x01, 0x00, 0x00, 0x00, 0x00, 0x00, 0x80, 0x3b,
    0x1b, 0x00, 0x00, 0x00, 0x53, 0x74, 0x61, 0x74, 0x65, 0x66, 0x75, 0x6c,
    0x50, 0x61, 0x72, 0x74, 0x69, 0x74, 0x69, 0x6f, 0x6e, 0x65, 0x64, 0x43,
    0x61, 0x6c, 0x6c, 0x5f, 0x31, 0x3a, 0x30, 0x00, 0x02, 0x00, 0x00, 0x00,
    0x01, 0x00, 0x00, 0x00, 0x02, 0x00, 0x00, 0x00, 0xe2, 0xe6, 0xff, 0xff,
    0x00, 0x00, 0x00, 0x01, 0x18, 0x00, 0x00, 0x00, 0x20, 0x00, 0x00, 0x00,
    0x3c, 0x00, 0x00, 0x00, 0x16, 0x00, 0x00, 0x00, 0x00, 0x00, 0x00, 0x09,
    0x70, 0x00, 0x00, 0x00, 0x02, 0x00, 0x00, 0x00, 0xff, 0xff, 0xff, 0xff,
    0x02, 0x00, 0x00, 0x00, 0xc4, 0xe6, 0xff, 0xff, 0x08, 0x00, 0x00, 0x00,
    0x10, 0x00, 0x00, 0x00, 0x01, 0x00, 0x00, 0x00, 0xf9, 0xff, 0xff, 0xff,
    0xff, 0xff, 0xff, 0xff, 0x01, 0x00, 0x00, 0x00, 0xe2, 0x9f, 0x94, 0x3d,
    0x38, 0x00, 0x00, 0x00, 0x66, 0x75, 0x6e, 0x63, 0x74, 0x69, 0x6f, 0x6e,
    0x61, 0x6c, 0x5f, 0x31, 0x2f, 0x64, 0x65, 0x6e, 0x73, 0x65, 0x5f, 0x31,
    0x2f, 0x4d, 0x61, 0x74, 0x4d, 0x75, 0x6c, 0x3b, 0x66, 0x75, 0x6e, 0x63,
    0x74, 0x69, 0x6f, 0x6e, 0x61, 0x6c, 0x5f, 0x31, 0x2f, 0x64, 0x65, 0x6e,
    0x73, 0x65, 0x5f, 0x31, 0x2f, 0x42, 0x69, 0x61, 0x73, 0x41, 0x64, 0x64,
    0x00, 0x00, 0x00, 0x00, 0x02, 0x00, 0x00, 0x00, 0x01, 0x00, 0x00, 0x00,
    0x02, 0x00, 0x00, 0x00, 0x7a, 0xe7, 0xff, 0xff, 0x00, 0x00, 0x00, 0x01,
    0x18, 0x00, 0x00, 0x00, 0x20, 0x00, 0x00, 0x00, 0x40, 0x00, 0x00, 0x00,
    0x15, 0x00, 0x00, 0x00, 0x00, 0x00, 0x00, 0x09, 0x68, 0x00, 0x00, 0x00,
    0x02, 0x00, 0x00, 0x00, 0xff, 0xff, 0xff, 0xff, 0x20, 0x00, 0x00, 0x00,
    0x5c, 0xe7, 0xff, 0xff, 0x08, 0x00, 0x00, 0x00, 0x14, 0x00, 0x00, 0x00,
    0x01, 0x00, 0x00, 0x00, 0x80, 0xff, 0xff, 0xff, 0xff, 0xff, 0xff, 0xff,
    0x00, 0x00, 0x00, 0x00, 0x01, 0x00, 0x00, 0x00, 0x20, 0x10, 0x63, 0x3c,
    0x2c, 0x00, 0x00, 0x00, 0x66, 0x75, 0x6e, 0x63, 0x74, 0x69, 0x6f, 0x6e,
    0x61, 0x6c, 0x5f, 0x31, 0x2f, 0x67, 0x6c, 0x6f, 0x62, 0x61, 0x6c, 0x5f,
    0x61, 0x76, 0x65, 0x72, 0x61, 0x67, 0x65, 0x5f, 0x70, 0x6f, 0x6f, 0x6c,
    0x69, 0x6e, 0x67, 0x32, 0x64, 0x5f, 0x31, 0x2f, 0x4d, 0x65, 0x61, 0x6e,
    0x00, 0x00, 0x00, 0x00, 0x02, 0x00, 0x00, 0x00, 0x01, 0x00, 0x00, 0x00,
    0x20, 0x00, 0x00, 0x00, 0x0a, 0xe8, 0xff, 0xff, 0x00, 0x00, 0x00, 0x01,
    0x18, 0x00, 0x00, 0x00, 0x28, 0x00, 0x00, 0x00, 0x44, 0x00, 0x00, 0x00,
    0x14, 0x00, 0x00, 0x00, 0x00, 0x00, 0x00, 0x09, 0xc0, 0x00, 0x00, 0x00,
    0x04, 0x00, 0x00, 0x00, 0xff, 0xff, 0xff, 0xff, 0x31, 0x00, 0x00, 0x00,
    0x06, 0x00, 0x00, 0x00, 0x20, 0x00, 0x00, 0x00, 0xf4, 0xe7, 0xff, 0xff,
    0x08, 0x00, 0x00, 0x00, 0x10, 0x00, 0x00, 0x00, 0x01, 0x00, 0x00, 0x00,
    0x80, 0xff, 0xff, 0xff, 0xff, 0xff, 0xff, 0xff, 0x01, 0x00, 0x00, 0x00,
    0xf3, 0x40, 0x6b, 0x3d, 0x81, 0x00, 0x00, 0x00, 0x66, 0x75, 0x6e, 0x63,
    0x74, 0x69, 0x6f, 0x6e, 0x61, 0x6c, 0x5f, 0x31, 0x2f, 0x63, 0x6f, 0x6e,
    0x76, 0x32, 0x64, 0x5f, 0x32, 0x5f, 0x31, 0x2f, 0x52, 0x65, 0x6c, 0x75,
    0x3b, 0x66, 0x75, 0x6e, 0x63, 0x74, 0x69, 0x6f, 0x6e, 0x61, 0x6c, 0x5f,
    0x31, 0x2f, 0x63, 0x6f, 0x6e, 0x76, 0x32, 0x64, 0x5f, 0x32, 0x5f, 0x31,
    0x2f, 0x42, 0x69, 0x61, 0x73, 0x41, 0x64, 0x64, 0x3b, 0x66, 0x75, 0x6e,
    0x63, 0x74, 0x69, 0x6f, 0x6e, 0x61, 0x6c, 0x5f, 0x31, 0x2f, 0x63, 0x6f,
    0x6e, 0x76, 0x32, 0x64, 0x5f, 0x32, 0x5f, 0x31, 0x2f, 0x63, 0x6f, 0x6e,
    0x76, 0x6f, 0x6c, 0x75, 0x74, 0x69, 0x6f, 0x6e, 0x3b, 0x66, 0x75, 0x6e,
    0x63, 0x74, 0x69, 0x6f, 0x6e, 0x61, 0x6c, 0x5f, 0x31, 0x2f, 0x63, 0x6f,
    0x6e, 0x76, 0x32, 0x64, 0x5f, 0x32, 0x5f, 0x31, 0x2f, 0x53, 0x71, 0x75,
    0x65, 0x65, 0x7a, 0x65, 0x31, 0x00, 0x00, 0x00, 0x04, 0x00, 0x00, 0x00,
    0x01, 0x00, 0x00, 0x00, 0x31, 0x00, 0x00, 0x00, 0x06, 0x00, 0x00, 0x00,
    0x20, 0x00, 0x00, 0x00, 0xfa, 0xe8, 0xff, 0xff, 0x00, 0x00, 0x00, 0x01,
    0x18, 0x00, 0x00, 0x00, 0x28, 0x00, 0x00, 0x00, 0x48, 0x00, 0x00, 0x00,
    0x13, 0x00, 0x00, 0x00, 0x00, 0x00, 0x00, 0x09, 0xe8, 0x00, 0x00, 0x00,
    0x04, 0x00, 0x00, 0x00, 0xff, 0xff, 0xff, 0xff, 0x31, 0x00, 0x00, 0x00,
    0x06, 0x00, 0x00, 0x00, 0x18, 0x00, 0x00, 0x00, 0xe4, 0xe8, 0xff, 0xff,
    0x08, 0x00, 0x00, 0x00, 0x14, 0x00, 0x00, 0x00, 0x01, 0x00, 0x00, 0x00,
    0x80, 0xff, 0xff, 0xff, 0xff, 0xff, 0xff, 0xff, 0x00, 0x00, 0x00, 0x00,
    0x01, 0x00, 0x00, 0x00, 0x7f, 0x84, 0x5e, 0x3d, 0xa7, 0x00, 0x00, 0x00,
    0x66, 0x75, 0x6e, 0x63, 0x74, 0x69, 0x6f, 0x6e, 0x61, 0x6c, 0x5f, 0x31,
    0x2f, 0x64, 0x65, 0x70, 0x74, 0x68, 0x77, 0x69, 0x73, 0x65, 0x5f, 0x63,
    0x6f, 0x6e, 0x76, 0x32, 0x64, 0x5f, 0x31, 0x5f, 0x32, 0x2f, 0x52, 0x65,
    0x6c, 0x75, 0x3b, 0x66, 0x75, 0x6e, 0x63, 0x74, 0x69, 0x6f, 0x6e, 0x61,
    0x6c, 0x5f, 0x31, 0x2f, 0x64, 0x65, 0x70, 0x74, 0x68, 0x77, 0x69, 0x73,
    0x65, 0x5f, 0x63, 0x6f, 0x6e, 0x76, 0x32, 0x64, 0x5f, 0x31, 0x5f, 0x32,
    0x2f, 0x42, 0x69, 0x61, 0x73, 0x41, 0x64, 0x64, 0x3b, 0x66, 0x75, 0x6e,
    0x63, 0x74, 0x69, 0x6f, 0x6e, 0x61, 0x6c, 0x5f, 0x31, 0x2f, 0x64, 0x65,
    0x70, 0x74, 0x68, 0x77, 0x69, 0x73, 0x65, 0x5f, 0x63, 0x6f, 0x6e, 0x76,
    0x32, 0x64, 0x5f, 0x31, 0x5f, 0x32, 0x2f, 0x64, 0x65, 0x70, 0x74, 0x68,
    0x77, 0x69, 0x73, 0x65, 0x3b, 0x66, 0x75, 0x6e, 0x63, 0x74, 0x69, 0x6f,
    0x6e, 0x61, 0x6c, 0x5f, 0x31, 0x2f, 0x64, 0x65, 0x70, 0x74, 0x68, 0x77,
    0x69, 0x73, 0x65, 0x5f, 0x63, 0x6f, 0x6e, 0x76, 0x32, 0x64, 0x5f, 0x31,
    0x5f, 0x32, 0x2f, 0x53, 0x71, 0x75, 0x65, 0x65, 0x7a, 0x65, 0x31, 0x00,
    0x04, 0x00, 0x00, 0x00, 0x01, 0x00, 0x00, 0x00, 0x31, 0x00, 0x00, 0x00,
    0x06, 0x00, 0x00, 0x00, 0x18, 0x00, 0x00, 0x00, 0x12, 0xea, 0xff, 0xff,
    0x00, 0x00, 0x00, 0x01, 0x18, 0x00, 0x00, 0x00, 0x28, 0x00, 0x00, 0x00,
    0x48, 0x00, 0x00, 0x00, 0x12, 0x00, 0x00, 0x00, 0x00, 0x00, 0x00, 0x09,
    0x68, 0x00, 0x00, 0x00, 0x04, 0x00, 0x00, 0x00, 0xff, 0xff, 0xff, 0xff,
    0x31, 0x00, 0x00, 0x00, 0x06, 0x00, 0x00, 0x00, 0x18, 0x00, 0x00, 0x00,
    0xfc, 0xe9, 0xff, 0xff, 0x08, 0x00, 0x00, 0x00, 0x14, 0x00, 0x00, 0x00,
    0x01, 0x00, 0x00, 0x00, 0x80, 0xff, 0xff, 0xff, 0xff, 0xff, 0xff, 0xff,
    0x00, 0x00, 0x00, 0x00, 0x01, 0x00, 0x00, 0x00, 0xe9, 0x01, 0x3d, 0x3e,
    0x26, 0x00, 0x00, 0x00, 0x66, 0x75, 0x6e, 0x63, 0x74, 0x69, 0x6f, 0x6e,
    0x61, 0x6c, 0x5f, 0x31, 0x2f, 0x6d, 0x61, 0x78, 0x5f, 0x70, 0x6f, 0x6f,
    0x6c, 0x69, 0x6e, 0x67, 0x32, 0x64, 0x5f, 0x31, 0x2f, 0x4d, 0x61, 0x78,
    0x50, 0x6f, 0x6f, 0x6c, 0x32, 0x64, 0x00, 0x00, 0x04, 0x00, 0x00, 0x00,
    0x01, 0x00, 0x00, 0x00, 0x31, 0x00, 0x00, 0x00, 0x06, 0x00, 0x00, 0x00,
    0x18, 0x00, 0x00, 0x00, 0xaa, 0xea, 0xff, 0xff, 0x00, 0x00, 0x00, 0x01,
    0x18, 0x00, 0x00, 0x00, 0x28, 0x00, 0x00, 0x00, 0x44, 0x00, 0x00, 0x00,
    0x11, 0x00, 0x00, 0x00, 0x00, 0x00, 0x00, 0x09, 0xc0, 0x00, 0x00, 0x00,
    0x04, 0x00, 0x00, 0x00, 0xff, 0xff, 0xff, 0xff, 0x62, 0x00, 0x00, 0x00,
    0x0d, 0x00, 0x00, 0x00, 0x18, 0x00, 0x00, 0x00, 0x94, 0xea, 0xff, 0xff,
    0x08, 0x00, 0x00, 0x00, 0x10, 0x00, 0x00, 0x00, 0x01, 0x00, 0x00, 0x00,
    0x80, 0xff, 0xff, 0xff, 0xff, 0xff, 0xff, 0xff, 0x01, 0x00, 0x00, 0x00,
    0xe9, 0x01, 0x3d, 0x3e, 0x81, 0x00, 0x00, 0x00, 0x66, 0x75, 0x6e, 0x63,
    0x74, 0x69, 0x6f, 0x6e, 0x61, 0x6c, 0x5f, 0x31, 0x2f, 0x63, 0x6f, 0x6e,
    0x76, 0x32, 0x64, 0x5f, 0x31, 0x5f, 0x32, 0x2f, 0x52, 0x65, 0x6c, 0x75,
    0x3b, 0x66, 0x75, 0x6e, 0x63, 0x74, 0x69, 0x6f, 0x6e, 0x61, 0x6c, 0x5f,
    0x31, 0x2f, 0x63, 0x6f, 0x6e, 0x76, 0x32, 0x64, 0x5f, 0x31, 0x5f, 0x32,
    0x2f, 0x42, 0x69, 0x61, 0x73, 0x41, 0x64, 0x64, 0x3b, 0x66, 0x75, 0x6e,
    0x63, 0x74, 0x69, 0x6f, 0x6e, 0x61, 0x6c, 0x5f, 0x31, 0x2f, 0x63, 0x6f,
    0x6e, 0x76, 0x32, 0x64, 0x5f, 0x31, 0x5f, 0x32, 0x2f, 0x63, 0x6f, 0x6e,
    0x76, 0x6f, 0x6c, 0x75, 0x74, 0x69, 0x6f, 0x6e, 0x3b, 0x66, 0x75, 0x6e,
    0x63, 0x74, 0x69, 0x6f, 0x6e, 0x61, 0x6c, 0x5f, 0x31, 0x2f, 0x63, 0x6f,
    0x6e, 0x76, 0x32, 0x64, 0x5f, 0x31, 0x5f, 0x32, 0x2f, 0x53, 0x71, 0x75,
    0x65, 0x65, 0x7a, 0x65, 0x31, 0x00, 0x00, 0x00, 0x04, 0x00, 0x00, 0x00,
    0x01, 0x00, 0x00, 0x00, 0x62, 0x00, 0x00, 0x00, 0x0d, 0x00, 0x00, 0x00,
    0x18, 0x00, 0x00, 0x00, 0x9a, 0xeb, 0xff, 0xff, 0x00, 0x00, 0x00, 0x01,
    0x18, 0x00, 0x00, 0x00, 0x28, 0x00, 0x00, 0x00, 0x48, 0x00, 0x00, 0x00,
    0x10, 0x00, 0x00, 0x00, 0x00, 0x00, 0x00, 0x09, 0xe0, 0x00, 0x00, 0x00,
    0x04, 0x00, 0x00, 0x00, 0xff, 0xff, 0xff, 0xff, 0x62, 0x00, 0x00, 0x00,
    0x0d, 0x00, 0x00, 0x00, 0x10, 0x00, 0x00, 0x00, 0x84, 0xeb, 0xff, 0xff,
    0x08, 0x00, 0x00, 0x00, 0x14, 0x00, 0x00, 0x00, 0x01, 0x00, 0x00, 0x00,
    0x80, 0xff, 0xff, 0xff, 0xff, 0xff, 0xff, 0xff, 0x00, 0x00, 0x00, 0x00,
    0x01, 0x00, 0x00, 0x00, 0x83, 0x5e, 0x34, 0x3e, 0x9f, 0x00, 0x00, 0x00,
    0x66, 0x75, 0x6e, 0x63, 0x74, 0x69, 0x6f, 0x6e, 0x61, 0x6c, 0x5f, 0x31,
    0x2f, 0x64, 0x65, 0x70, 0x74, 0x68, 0x77, 0x69, 0x73, 0x65, 0x5f, 0x63,
    0x6f, 0x6e, 0x76, 0x32, 0x64, 0x5f, 0x31, 0x2f, 0x52, 0x65, 0x6c, 0x75,
    0x3b, 0x66, 0x75, 0x6e, 0x63, 0x74, 0x69, 0x6f, 0x6e, 0x61, 0x6c, 0x5f,
    0x31, 0x2f, 0x64, 0x65, 0x70, 0x74, 0x68, 0x77, 0x69, 0x73, 0x65, 0x5f,
    0x63, 0x6f, 0x6e, 0x76, 0x32, 0x64, 0x5f, 0x31, 0x2f, 0x42, 0x69, 0x61,
    0x73, 0x41, 0x64, 0x64, 0x3b, 0x66, 0x75, 0x6e, 0x63, 0x74, 0x69, 0x6f,
    0x6e, 0x61, 0x6c, 0x5f, 0x31, 0x2f, 0x64, 0x65, 0x70, 0x74, 0x68, 0x77,
    0x69, 0x73, 0x65, 0x5f, 0x63, 0x6f, 0x6e, 0x76, 0x32, 0x64, 0x5f, 0x31,
    0x2f, 0x64, 0x65, 0x70, 0x74, 0x68, 0x77, 0x69, 0x73, 0x65, 0x3b, 0x66,
    0x75, 0x6e, 0x63, 0x74, 0x69, 0x6f, 0x6e, 0x61, 0x6c, 0x5f, 0x31, 0x2f,
    0x64, 0x65, 0x70, 0x74, 0x68, 0x77, 0x69, 0x73, 0x65, 0x5f, 0x63, 0x6f,
    0x6e, 0x76, 0x32, 0x64, 0x5f, 0x31, 0x2f, 0x53, 0x71, 0x75, 0x65, 0x65,
    0x7a, 0x65, 0x31, 0x00, 0x04, 0x00, 0x00, 0x00, 0x01, 0x00, 0x00, 0x00,
    0x62, 0x00, 0x00, 0x00, 0x0d, 0x00, 0x00, 0x00, 0x10, 0x00, 0x00, 0x00,
    0xaa, 0xec, 0xff, 0xff, 0x00, 0x00, 0x00, 0x01, 0x18, 0x00, 0x00, 0x00,
    0x28, 0x00, 0x00, 0x00, 0x44, 0x00, 0x00, 0x00, 0x0f, 0x00, 0x00, 0x00,
    0x00, 0x00, 0x00, 0x09, 0xb8, 0x00, 0x00, 0x00, 0x04, 0x00, 0x00, 0x00,
    0xff, 0xff, 0xff, 0xff, 0x62, 0x00, 0x00, 0x00, 0x0d, 0x00, 0x00, 0x00,
    0x10, 0x00, 0x00, 0x00, 0x94, 0xec, 0xff, 0xff, 0x08, 0x00, 0x00, 0x00,
    0x10, 0x00, 0x00, 0x00, 0x01, 0x00, 0x00, 0x00, 0x80, 0xff, 0xff, 0xff,
    0xff, 0xff, 0xff, 0xff, 0x01, 0x00, 0x00, 0x00, 0x14, 0xa0, 0x93, 0x3e,
    0x79, 0x00, 0x00, 0x00, 0x66, 0x75, 0x6e, 0x63, 0x74, 0x69, 0x6f, 0x6e,
    0x61, 0x6c, 0x5f, 0x31, 0x2f, 0x63, 0x6f, 0x6e, 0x76, 0x32, 0x64, 0x5f,
    0x31, 0x2f, 0x52, 0x65, 0x6c, 0x75, 0x3b, 0x66, 0x75, 0x6e, 0x63, 0x74,
    0x69, 0x6f, 0x6e, 0x61, 0x6c, 0x5f, 0x31, 0x2f, 0x63, 0x6f, 0x6e, 0x76,
    0x32, 0x64, 0x5f, 0x31, 0x2f, 0x42, 0x69, 0x61, 0x73, 0x41, 0x64, 0x64,
    0x3b, 0x66, 0x75, 0x6e, 0x63, 0x74, 0x69, 0x6f, 0x6e, 0x61, 0x6c, 0x5f,
    0x31, 0x2f, 0x63, 0x6f, 0x6e, 0x76, 0x32, 0x64, 0x5f, 0x31, 0x2f, 0x63,
    0x6f, 0x6e, 0x76, 0x6f, 0x6c, 0x75, 0x74, 0x69, 0x6f, 0x6e, 0x3b, 0x66,
    0x75, 0x6e, 0x63, 0x74, 0x69, 0x6f, 0x6e, 0x61, 0x6c, 0x5f, 0x31, 0x2f,
    0x63, 0x6f, 0x6e, 0x76, 0x32, 0x64, 0x5f, 0x31, 0x2f, 0x53, 0x71, 0x75,
    0x65, 0x65, 0x7a, 0x65, 0x31, 0x00, 0x00, 0x00, 0x04, 0x00, 0x00, 0x00,
    0x01, 0x00, 0x00, 0x00, 0x62, 0x00, 0x00, 0x00, 0x0d, 0x00, 0x00, 0x00,
    0x10, 0x00, 0x00, 0x00, 0x1a, 0xee, 0xff, 0xff, 0x00, 0x00, 0x00, 0x01,
    0x14, 0x00, 0x00, 0x00, 0xe8, 0x00, 0x00, 0x00, 0x0e, 0x00, 0x00, 0x00,
    0x00, 0x00, 0x00, 0x09, 0x04, 0x01, 0x00, 0x00, 0x64, 0xed, 0xff, 0xff,
    0x08, 0x00, 0x00, 0x00, 0x8c, 0x00, 0x00, 0x00, 0x10, 0x00, 0x00, 0x00,
    0x00, 0x00, 0x00, 0x00, 0x00, 0x00, 0x00, 0x00, 0x00, 0x00, 0x00, 0x00,
    0x00, 0x00, 0x00, 0x00, 0x00, 0x00, 0x00, 0x00, 0x00, 0x00, 0x00, 0x00,
    0x00, 0x00, 0x00, 0x00, 0x00, 0x00, 0x00, 0x00, 0x00, 0x00, 0x00, 0x00,
    0x00, 0x00, 0x00, 0x00, 0x00, 0x00, 0x00, 0x00, 0x00, 0x00, 0x00, 0x00,
    0x00, 0x00, 0x00, 0x00, 0x00, 0x00, 0x00, 0x00, 0x00, 0x00, 0x00, 0x00,
    0x00, 0x00, 0x00, 0x00, 0x00, 0x00, 0x00, 0x00, 0x00, 0x00, 0x00, 0x00,
    0x00, 0x00, 0x00, 0x00, 0x00, 0x00, 0x00, 0x00, 0x00, 0x00, 0x00, 0x00,
    0x00, 0x00, 0x00, 0x00, 0x00, 0x00, 0x00, 0x00, 0x00, 0x00, 0x00, 0x00,
    0x00, 0x00, 0x00, 0x00, 0x00, 0x00, 0x00, 0x00, 0x00, 0x00, 0x00, 0x00,
    0x00, 0x00, 0x00, 0x00, 0x00, 0x00, 0x00, 0x00, 0x00, 0x00, 0x00, 0x00,
    0x00, 0x00, 0x00, 0x00, 0x00, 0x00, 0x00, 0x00, 0x00, 0x00, 0x00, 0x00,
    0x10, 0x00, 0x00, 0x00, 0x15, 0x99, 0x23, 0x3b, 0x6c, 0xce, 0x39, 0x3b,
    0xe4, 0x8e, 0x2a, 0x3b, 0x29, 0x1b, 0x4d, 0x3b, 0xce, 0xc1, 0x30, 0x3b,
    0xd8, 0x21, 0x01, 0x3b, 0xe1, 0x13, 0x16, 0x3b, 0x59, 0x3d, 0x0b, 0x3b,
    0xd3, 0x81, 0x27, 0x3b, 0xf6, 0x4b, 0x70, 0x3b, 0x21, 0xea, 0x6d, 0x3b,
    0x24, 0xf7, 0x3c, 0x3b, 0xb3, 0xe4, 0x58, 0x3b, 0xc7, 0xc6, 0x1d, 0x3b,
    0xe4, 0xd3, 0xcf, 0x3a, 0x13, 0x15, 0x63, 0x3b, 0x21, 0x00, 0x00, 0x00,
    0x66, 0x75, 0x6e, 0x63, 0x74, 0x69, 0x6f, 0x6e, 0x61, 0x6c, 0x5f, 0x31,
    0x2f, 0x63, 0x6f, 0x6e, 0x76, 0x32, 0x64, 0x5f, 0x31, 0x2f, 0x63, 0x6f,
    0x6e, 0x76, 0x6f, 0x6c, 0x75, 0x74, 0x69, 0x6f, 0x6e, 0x00, 0x00, 0x00,
    0x04, 0x00, 0x00, 0x00, 0x10, 0x00, 0x00, 0x00, 0x03, 0x00, 0x00, 0x00,
    0x03, 0x00, 0x00, 0x00, 0x01, 0x00, 0x00, 0x00, 0x4a, 0xef, 0xff, 0xff,
    0x00, 0x00, 0x00, 0x01, 0x14, 0x00, 0x00, 0x00, 0xe8, 0x00, 0x00, 0x00,
    0x0d, 0x00, 0x00, 0x00, 0x00, 0x00, 0x00, 0x02, 0x5c, 0x01, 0x00, 0x00,
    0x94, 0xee, 0xff, 0xff, 0x08, 0x00, 0x00, 0x00, 0x8c, 0x00, 0x00, 0x00,
    0x10, 0x00, 0x00, 0x00, 0x00, 0x00, 0x00, 0x00, 0x00, 0x00, 0x00, 0x00,
    0x00, 0x00, 0x00, 0x00, 0x00, 0x00, 0x00, 0x00, 0x00, 0x00, 0x00, 0x00,
    0x00, 0x00, 0x00, 0x00, 0x00, 0x00, 0x00, 0x00, 0x00, 0x00, 0x00, 0x00,
    0x00, 0x00, 0x00, 0x00, 0x00, 0x00, 0x00, 0x00, 0x00, 0x00, 0x00, 0x00,
    0x00, 0x00, 0x00, 0x00, 0x00, 0x00, 0x00, 0x00, 0x00, 0x00, 0x00, 0x00,
    0x00, 0x00, 0x00, 0x00, 0x00, 0x00, 0x00, 0x00, 0x00, 0x00, 0x00, 0x00,
    0x00, 0x00, 0x00, 0x00, 0x00, 0x00, 0x00, 0x00, 0x00, 0x00, 0x00, 0x00,
    0x00, 0x00, 0x00, 0x00, 0x00, 0x00, 0x00, 0x00, 0x00, 0x00, 0x00, 0x00,
    0x00, 0x00, 0x00, 0x00, 0x00, 0x00, 0x00, 0x00, 0x00, 0x00, 0x00, 0x00,
    0x00, 0x00, 0x00, 0x00, 0x00, 0x00, 0x00, 0x00, 0x00, 0x00, 0x00, 0x00,
    0x00, 0x00, 0x00, 0x00, 0x00, 0x00, 0x00, 0x00, 0x00, 0x00, 0x00, 0x00,
    0x00, 0x00, 0x00, 0x00, 0x10, 0x00, 0x00, 0x00, 0xef, 0x32, 0x69, 0x3a,
    0x85, 0x6d, 0x84, 0x3a, 0xcb, 0x1e, 0x73, 0x3a, 0xe1, 0x2e, 0x92, 0x3a,
    0xd7, 0xf4, 0x7b, 0x3a, 0xf2, 0x11, 0x38, 0x3a, 0x33, 0xed, 0x55, 0x3a,
    0x46, 0x7a, 0x46, 0x3a, 0x6e, 0xc5, 0x6e, 0x3a, 0xa1, 0x43, 0xab, 0x3a,
    0xfd, 0x90, 0xa9, 0x3a, 0xe9, 0xad, 0x86, 0x3a, 0x8a, 0x95, 0x9a, 0x3a,
    0x98, 0xe6, 0x60, 0x3a, 0x74, 0x1f, 0x14, 0x3a, 0x94, 0xd8, 0xa1, 0x3a,
    0x78, 0x00, 0x00, 0x00, 0x66, 0x75, 0x6e, 0x63, 0x74, 0x69, 0x6f, 0x6e,
    0x61, 0x6c, 0x5f, 0x31, 0x2f, 0x63, 0x6f, 0x6e, 0x76, 0x32, 0x64, 0x5f,
    0x31, 0x2f, 0x52, 0x65, 0x6c, 0x75, 0x3b, 0x66, 0x75, 0x6e, 0x63, 0x74,
    0x69, 0x6f, 0x6e, 0x61, 0x6c, 0x5f, 0x31, 0x2f, 0x63, 0x6f, 0x6e, 0x76,
    0x32, 0x64, 0x5f, 0x31, 0x2f, 0x42, 0x69, 0x61, 0x73, 0x41, 0x64, 0x64,
    0x3b, 0x66, 0x75, 0x6e, 0x63, 0x74, 0x69, 0x6f, 0x6e, 0x61, 0x6c, 0x5f,
    0x31, 0x2f, 0x63, 0x6f, 0x6e, 0x76, 0x32, 0x64, 0x5f, 0x31, 0x2f, 0x63,
    0x6f, 0x6e, 0x76, 0x6f, 0x6c, 0x75, 0x74, 0x69, 0x6f, 0x6e, 0x3b, 0x66,
    0x75, 0x6e, 0x63, 0x74, 0x69, 0x6f, 0x6e, 0x61, 0x6c, 0x5f, 0x31, 0x2f,
    0x63, 0x6f, 0x6e, 0x76, 0x32, 0x64, 0x5f, 0x31, 0x2f, 0x53, 0x71, 0x75,
    0x65, 0x65, 0x7a, 0x65, 0x00, 0x00, 0x00, 0x00, 0x01, 0x00, 0x00, 0x00,
    0x10, 0x00, 0x00, 0x00, 0xc6, 0xf0, 0xff, 0xff, 0x00, 0x00, 0x00, 0x01,
    0x14, 0x00, 0x00, 0x00, 0xec, 0x00, 0x00, 0x00, 0x0c, 0x00, 0x00, 0x00,
    0x00, 0x00, 0x00, 0x09, 0x10, 0x01, 0x00, 0x00, 0x9a, 0xf9, 0xff, 0xff,
    0x03, 0x00, 0x00, 0x00, 0x08, 0x00, 0x00, 0x00, 0x8c, 0x00, 0x00, 0x00,
    0x10, 0x00, 0x00, 0x00, 0x00, 0x00, 0x00, 0x00, 0x00, 0x00, 0x00, 0x00,
    0x00, 0x00, 0x00, 0x00, 0x00, 0x00, 0x00, 0x00, 0x00, 0x00, 0x00, 0x00,
    0x00, 0x00, 0x00, 0x00, 0x00, 0x00, 0x00, 0x00, 0x00, 0x00, 0x00, 0x00,
    0x00, 0x00, 0x00, 0x00, 0x00, 0x00, 0x00, 0x00, 0x00, 0x00, 0x00, 0x00,
    0x00, 0x00, 0x00, 0x00, 0x00, 0x00, 0x00, 0x00, 0x00, 0x00, 0x00, 0x00,
    0x00, 0x00, 0x00, 0x00, 0x00, 0x00, 0x00, 0x00, 0x00, 0x00, 0x00, 0x00,
    0x00, 0x00, 0x00, 0x00, 0x00, 0x00, 0x00, 0x00, 0x00, 0x00, 0x00, 0x00,
    0x00, 0x00, 0x00, 0x00, 0x00, 0x00, 0x00, 0x00, 0x00, 0x00, 0x00, 0x00,
    0x00, 0x00, 0x00, 0x00, 0x00, 0x00, 0x00, 0x00, 0x00, 0x00, 0x00, 0x00,
    0x00, 0x00, 0x00, 0x00, 0x00, 0x00, 0x00, 0x00, 0x00, 0x00, 0x00, 0x00,
    0x00, 0x00, 0x00, 0x00, 0x00, 0x00, 0x00, 0x00, 0x00, 0x00, 0x00, 0x00,
    0x00, 0x00, 0x00, 0x00, 0x10, 0x00, 0x00, 0x00, 0xab, 0xa0, 0x17, 0x3b,
    0x26, 0xf7, 0x3b, 0x3b, 0x6c, 0x9f, 0xc7, 0x3a, 0x3e, 0x75, 0x4a, 0x3b,
    0x96, 0xa3, 0x33, 0x3b, 0x7a, 0xcd, 0xec, 0x3a, 0xc1, 0xfe, 0x45, 0x3b,
    0x93, 0x72, 0x0a, 0x3b, 0xcd, 0x99, 0x00, 0x3b, 0xf3, 0x79, 0x13, 0x3b,
    0xa6, 0xef, 0x1d, 0x3b, 0xfd, 0x08, 0x44, 0x3b, 0x27, 0xb9, 0x0d, 0x3b,
    0xb9, 0x28, 0x7f, 0x3b, 0x05, 0xc8, 0xb1, 0x3a, 0x1d, 0xc8, 0x48, 0x3b,
    0x29, 0x00, 0x00, 0x00, 0x66, 0x75, 0x6e, 0x63, 0x74, 0x69, 0x6f, 0x6e,
    0x61, 0x6c, 0x5f, 0x31, 0x2f, 0x64, 0x65, 0x70, 0x74, 0x68, 0x77, 0x69,
    0x73, 0x65, 0x5f, 0x63, 0x6f, 0x6e, 0x76, 0x32, 0x64, 0x5f, 0x31, 0x2f,
    0x64, 0x65, 0x70, 0x74, 0x68, 0x77, 0x69, 0x73, 0x65, 0x00, 0x00, 0x00,
    0x04, 0x00, 0x00, 0x00, 0x01, 0x00, 0x00, 0x00, 0x03, 0x00, 0x00, 0x00,
    0x03, 0x00, 0x00, 0x00, 0x10, 0x00, 0x00, 0x00, 0x02, 0xf2, 0xff, 0xff,
    0x00, 0x00, 0x00, 0x01, 0x14, 0x00, 0x00, 0x00, 0xe8, 0x00, 0x00, 0x00,
    0x0b, 0x00, 0x00, 0x00, 0x00, 0x00, 0x00, 0x02, 0x80, 0x01, 0x00, 0x00,
    0x4c, 0xf1, 0xff, 0xff, 0x08, 0x00, 0x00, 0x00, 0x8c, 0x00, 0x00, 0x00,
    0x10, 0x00, 0x00, 0x00, 0x00, 0x00, 0x00, 0x00, 0x00, 0x00, 0x00, 0x00,
    0x00, 0x00, 0x00, 0x00, 0x00, 0x00, 0x00, 0x00, 0x00, 0x00, 0x00, 0x00,
    0x00, 0x00, 0x00, 0x00, 0x00, 0x00, 0x00, 0x00, 0x00, 0x00, 0x00, 0x00,
    0x00, 0x00, 0x00, 0x00, 0x00, 0x00, 0x00, 0x00, 0x00, 0x00, 0x00, 0x00,
    0x00, 0x00, 0x00, 0x00, 0x00, 0x00, 0x00, 0x00, 0x00, 0x00, 0x00, 0x00,
    0x00, 0x00, 0x00, 0x00, 0x00, 0x00, 0x00, 0x00, 0x00, 0x00, 0x00, 0x00,
    0x00, 0x00, 0x00, 0x00, 0x00, 0x00, 0x00, 0x00, 0x00, 0x00, 0x00, 0x00,
    0x00, 0x00, 0x00, 0x00, 0x00, 0x00, 0x00, 0x00, 0x00, 0x00, 0x00, 0x00,
    0x00, 0x00, 0x00, 0x00, 0x00, 0x00, 0x00, 0x00, 0x00, 0x00, 0x00, 0x00,
    0x00, 0x00, 0x00, 0x00, 0x00, 0x00, 0x00, 0x00, 0x00, 0x00, 0x00, 0x00,
    0x00, 0x00, 0x00, 0x00, 0x00, 0x00, 0x00, 0x00, 0x00, 0x00, 0x00, 0x00,
    0x00, 0x00, 0x00, 0x00, 0x10, 0x00, 0x00, 0x00, 0x25, 0xe0, 0x2e, 0x3a,
    0xe8, 0xc8, 0x58, 0x3a, 0xbc, 0x3a, 0xe6, 0x39, 0xd7, 0x7f, 0x69, 0x3a,
    0x87, 0x2e, 0x4f, 0x3a, 0x10, 0x8e, 0x08, 0x3a, 0x2f, 0x5a, 0x64, 0x3a,
    0xba, 0xac, 0x1f, 0x3a, 0x76, 0x51, 0x14, 0x3a, 0x7d, 0x16, 0x2a, 0x3a,
    0xbd, 0x26, 0x36, 0x3a, 0x7c, 0x17, 0x62, 0x3a, 0xe0, 0x73, 0x23, 0x3a,
    0xf0, 0x23, 0x93, 0x3a, 0x0c, 0x0a, 0xcd, 0x39, 0xeb, 0x90, 0x67, 0x3a,
    0x9e, 0x00, 0x00, 0x00, 0x66, 0x75, 0x6e, 0x63, 0x74, 0x69, 0x6f, 0x6e,
    0x61, 0x6c, 0x5f, 0x31, 0x2f, 0x64, 0x65, 0x70, 0x74, 0x68, 0x77, 0x69,
    0x73, 0x65, 0x5f, 0x63, 0x6f, 0x6e, 0x76, 0x32, 0x64, 0x5f, 0x31, 0x2f,
    0x52, 0x65, 0x6c, 0x75, 0x3b, 0x66, 0x75, 0x6e, 0x63, 0x74, 0x69, 0x6f,
    0x6e, 0x61, 0x6c, 0x5f, 0x31, 0x2f, 0x64, 0x65, 0x70, 0x74, 0x68, 0x77,
    0x69, 0x73, 0x65, 0x5f, 0x63, 0x6f, 0x6e, 0x76, 0x32, 0x64, 0x5f, 0x31,
    0x2f, 0x42, 0x69, 0x61, 0x73, 0x41, 0x64, 0x64, 0x3b, 0x66, 0x75, 0x6e,
    0x63, 0x74, 0x69, 0x6f, 0x6e, 0x61, 0x6c, 0x5f, 0x31, 0x2f, 0x64, 0x65,
    0x70, 0x74, 0x68, 0x77, 0x69, 0x73, 0x65, 0x5f, 0x63, 0x6f, 0x6e, 0x76,
    0x32, 0x64, 0x5f, 0x31, 0x2f, 0x64, 0x65, 0x70, 0x74, 0x68, 0x77, 0x69,
    0x73, 0x65, 0x3b, 0x66, 0x75, 0x6e, 0x63, 0x74, 0x69, 0x6f, 0x6e, 0x61,
    0x6c, 0x5f, 0x31, 0x2f, 0x64, 0x65, 0x70, 0x74, 0x68, 0x77, 0x69, 0x73,
    0x65, 0x5f, 0x63, 0x6f, 0x6e, 0x76, 0x32, 0x64, 0x5f, 0x31, 0x2f, 0x53,
    0x71, 0x75, 0x65, 0x65, 0x7a, 0x65, 0x00, 0x00, 0x01, 0x00, 0x00, 0x00,
    0x10, 0x00, 0x00, 0x00, 0xa2, 0xf3, 0xff, 0xff, 0x00, 0x00, 0x00, 0x01,
    0x14, 0x00, 0x00, 0x00, 0x48, 0x01, 0x00, 0x00, 0x0a, 0x00, 0x00, 0x00,
    0x00, 0x00, 0x00, 0x09, 0x64, 0x01, 0x00, 0x00, 0xec, 0xf2, 0xff, 0xff,
    0x08, 0x00, 0x00, 0x00, 0xcc, 0x00, 0x00, 0x00, 0x18, 0x00, 0x00, 0x00,
    0x00, 0x00, 0x00, 0x00, 0x00, 0x00, 0x00, 0x00, 0x00, 0x00, 0x00, 0x00,
    0x00, 0x00, 0x00, 0x00, 0x00, 0x00, 0x00, 0x00, 0x00, 0x00, 0x00, 0x00,
    0x00, 0x00, 0x00, 0x00, 0x00, 0x00, 0x00, 0x00, 0x00, 0x00, 0x00, 0x00,
    0x00, 0x00, 0x00, 0x00, 0x00, 0x00, 0x00, 0x00, 0x00, 0x00, 0x00, 0x00,
    0x00, 0x00, 0x00, 0x00, 0x00, 0x00, 0x00, 0x00, 0x00, 0x00, 0x00, 0x00,
    0x00, 0x00, 0x00, 0x00, 0x00, 0x00, 0x00, 0x00, 0x00, 0x00, 0x00, 0x00,
    0x00, 0x00, 0x00, 0x00, 0x00, 0x00, 0x00, 0x00, 0x00, 0x00, 0x00, 0x00,
    0x00, 0x00, 0x00, 0x00, 0x00, 0x00, 0x00, 0x00, 0x00, 0x00, 0x00, 0x00,
    0x00, 0x00, 0x00, 0x00, 0x00, 0x00, 0x00, 0x00, 0x00, 0x00, 0x00, 0x00,
    0x00, 0x00, 0x00, 0x00, 0x00, 0x00, 0x00, 0x00, 0x00, 0x00, 0x00, 0x00,
    0x00, 0x00, 0x00, 0x00, 0x00, 0x00, 0x00, 0x00, 0x00, 0x00, 0x00, 0x00,
    0x00, 0x00, 0x00, 0x00, 0x00, 0x00, 0x00, 0x00, 0x00, 0x00, 0x00, 0x00,
    0x00, 0x00, 0x00, 0x00, 0x00, 0x00, 0x00, 0x00, 0x00, 0x00, 0x00, 0x00,
    0x00, 0x00, 0x00, 0x00, 0x00, 0x00, 0x00, 0x00, 0x00, 0x00, 0x00, 0x00,
    0x00, 0x00, 0x00, 0x00, 0x00, 0x00, 0x00, 0x00, 0x00, 0x00, 0x00, 0x00,
    0x00, 0x00, 0x00, 0x00, 0x00, 0x00, 0x00, 0x00, 0x00, 0x00, 0x00, 0x00,
    0x00, 0x00, 0x00, 0x00, 0x18, 0x00, 0x00, 0x00, 0xe3, 0x45, 0x90, 0x3b,
    0xf6, 0xf2, 0xae, 0x3b, 0xdf, 0xd3, 0x93, 0x3b, 0x4a, 0x43, 0x83, 0x3b,
    0x86, 0x88, 0x9f, 0x3b, 0xe0, 0xe4, 0x8b, 0x3b, 0x81, 0x8f, 0xf9, 0x3b,
    0x80, 0x3a, 0x97, 0x3b, 0xc8, 0x90, 0x9c, 0x3b, 0x50, 0xc3, 0x80, 0x3b,
    0x86, 0x1d, 0xa7, 0x3b, 0x25, 0xe3, 0x9d, 0x3b, 0xdb, 0x57, 0x45, 0x3b,
    0x77, 0xe2, 0xb7, 0x3b, 0xb1, 0x76, 0xa5, 0x3b, 0x7d, 0x01, 0x51, 0x3b,
    0x2a, 0xed, 0xb3, 0x3b, 0x17, 0x25, 0x8c, 0x3b, 0xc6, 0x9a, 0x52, 0x3b,
    0x9a, 0xde, 0x7e, 0x3b, 0x50, 0x2e, 0xc3, 0x3b, 0xdf, 0x70, 0xce, 0x3b,
    0xd1, 0x62, 0xb4, 0x3b, 0xfa, 0x63, 0xa2, 0x3b, 0x23, 0x00, 0x00, 0x00,
    0x66, 0x75, 0x6e, 0x63, 0x74, 0x69, 0x6f, 0x6e, 0x61, 0x6c, 0x5f, 0x31,
    0x2f, 0x63, 0x6f, 0x6e, 0x76, 0x32, 0x64, 0x5f, 0x31, 0x5f, 0x32, 0x2f,
    0x63, 0x6f, 0x6e, 0x76, 0x6f, 0x6c, 0x75, 0x74, 0x69, 0x6f, 0x6e, 0x00,
    0x04, 0x00, 0x00, 0x00, 0x18, 0x00, 0x00, 0x00, 0x01, 0x00, 0x00, 0x00,
    0x01, 0x00, 0x00, 0x00, 0x10, 0x00, 0x00, 0x00, 0x32, 0xf5, 0xff, 0xff,
    0x00, 0x00, 0x00, 0x01, 0x14, 0x00, 0x00, 0x00, 0x44, 0x01, 0x00, 0x00,
    0x09, 0x00, 0x00, 0x00, 0x00, 0x00, 0x00, 0x02, 0xc0, 0x01, 0x00, 0x00,
    0x7c, 0xf4, 0xff, 0xff, 0x08, 0x00, 0x00, 0x00, 0xc8, 0x00, 0x00, 0x00,
    0x18, 0x00, 0x00, 0x00, 0x00, 0x00, 0x00, 0x00, 0x00, 0x00, 0x00, 0x00,
    0x00, 0x00, 0x00, 0x00, 0x00, 0x00, 0x00, 0x00, 0x00, 0x00, 0x00, 0x00,
    0x00, 0x00, 0x00, 0x00, 0x00, 0x00, 0x00, 0x00, 0x00, 0x00, 0x00, 0x00,
    0x00, 0x00, 0x00, 0x00, 0x00, 0x00, 0x00, 0x00, 0x00, 0x00, 0x00, 0x00,
    0x00, 0x00, 0x00, 0x00, 0x00, 0x00, 0x00, 0x00, 0x00, 0x00, 0x00, 0x00,
    0x00, 0x00, 0x00, 0x00, 0x00, 0x00, 0x00, 0x00, 0x00, 0x00, 0x00, 0x00,
    0x00, 0x00, 0x00, 0x00, 0x00, 0x00, 0x00, 0x00, 0x00, 0x00, 0x00, 0x00,
    0x00, 0x00, 0x00, 0x00, 0x00, 0x00, 0x00, 0x00, 0x00, 0x00, 0x00, 0x00,
    0x00, 0x00, 0x00, 0x00, 0x00, 0x00, 0x00, 0x00, 0x00, 0x00, 0x00, 0x00,
    0x00, 0x00, 0x00, 0x00, 0x00, 0x00, 0x00, 0x00, 0x00, 0x00, 0x00, 0x00,
    0x00, 0x00, 0x00, 0x00, 0x00, 0x00, 0x00, 0x00, 0x00, 0x00, 0x00, 0x00,
    0x00, 0x00, 0x00, 0x00, 0x00, 0x00, 0x00, 0x00, 0x00, 0x00, 0x00, 0x00,
    0x00, 0x00, 0x00, 0x00, 0x00, 0x00, 0x00, 0x00, 0x00, 0x00, 0x00, 0x00,
    0x00, 0x00, 0x00, 0x00, 0x00, 0x00, 0x00, 0x00, 0x00, 0x00, 0x00, 0x00,
    0x00, 0x00, 0x00, 0x00, 0x00, 0x00, 0x00, 0x00, 0x00, 0x00, 0x00, 0x00,
    0x00, 0x00, 0x00, 0x00, 0x00, 0x00, 0x00, 0x00, 0x00, 0x00, 0x00, 0x00,
    0x00, 0x00, 0x00, 0x00, 0x18, 0x00, 0x00, 0x00, 0xce, 0x4c, 0x4b, 0x3a,
    0xd7, 0x86, 0x76, 0x3a, 0x18, 0x4f, 0x50, 0x3a, 0x8c, 0xf7, 0x38, 0x3a,
    0xc8, 0xcd, 0x60, 0x3a, 0x26, 0x21, 0x45, 0x3a, 0x09, 0xd5, 0xaf, 0x3a,
    0xee, 0x19, 0x55, 0x3a, 0x34, 0x9f, 0x5c, 0x3a, 0xbc, 0x71, 0x35, 0x3a,
    0xe9, 0x7c, 0x6b, 0x3a, 0x00, 0x7c, 0x5e, 0x3a, 0xa1, 0x0a, 0x0b, 0x3a,
    0x1f, 0x8f, 0x81, 0x3a, 0x15, 0x29, 0x69, 0x3a, 0x35, 0x42, 0x13, 0x3a,
    0x5d, 0x8a, 0x7d, 0x3a, 0xa3, 0x7b, 0x45, 0x3a, 0x94, 0x62, 0x14, 0x3a,
    0x9c, 0x92, 0x33, 0x3a, 0x9f, 0x84, 0x89, 0x3a, 0x94, 0x73, 0x91, 0x3a,
    0x27, 0x30, 0x7e, 0x3a, 0x7f, 0xd4, 0x64, 0x3a, 0x80, 0x00, 0x00, 0x00,
    0x66, 0x75, 0x6e, 0x63, 0x74, 0x69, 0x6f, 0x6e, 0x61, 0x6c, 0x5f, 0x31,
    0x2f, 0x63, 0x6f, 0x6e, 0x76, 0x32, 0x64, 0x5f, 0x31, 0x5f, 0x32, 0x2f,
    0x52, 0x65, 0x6c, 0x75, 0x3b, 0x66, 0x75, 0x6e, 0x63, 0x74, 0x69, 0x6f,
    0x6e, 0x61, 0x6c, 0x5f, 0x31, 0x2f, 0x63, 0x6f, 0x6e, 0x76, 0x32, 0x64,
    0x5f, 0x31, 0x5f, 0x32, 0x2f, 0x42, 0x69, 0x61, 0x73, 0x41, 0x64, 0x64,
    0x3b, 0x66, 0x75, 0x6e, 0x63, 0x74, 0x69, 0x6f, 0x6e, 0x61, 0x6c, 0x5f,
    0x31, 0x2f, 0x63, 0x6f, 0x6e, 0x76, 0x32, 0x64, 0x5f, 0x31, 0x5f, 0x32,
    0x2f, 0x63, 0x6f, 0x6e, 0x76, 0x6f, 0x6c, 0x75, 0x74, 0x69, 0x6f, 0x6e,
    0x3b, 0x66, 0x75, 0x6e, 0x63, 0x74, 0x69, 0x6f, 0x6e, 0x61, 0x6c, 0x5f,
    0x31, 0x2f, 0x63, 0x6f, 0x6e, 0x76, 0x32, 0x64, 0x5f, 0x31, 0x5f, 0x32,
    0x2f, 0x53, 0x71, 0x75, 0x65, 0x65, 0x7a, 0x65, 0x00, 0x00, 0x00, 0x00,
    0x01, 0x00, 0x00, 0x00, 0x18, 0x00, 0x00, 0x00, 0x00, 0x00, 0x16, 0x00,
    0x1e, 0x00, 0x18, 0x00, 0x17, 0x00, 0x10, 0x00, 0x0c, 0x00, 0x08, 0x00,
    0x00, 0x00, 0x00, 0x00, 0x00, 0x00, 0x07, 0x00, 0x16, 0x00, 0x00, 0x00,
    0x00, 0x00, 0x00, 0x01, 0x28, 0x00, 0x00, 0x00, 0x60, 0x01, 0x00, 0x00,
    0x08, 0x00, 0x00, 0x00, 0x00, 0x00, 0x00, 0x09, 0x84, 0x01, 0x00, 0x00,
    0x00, 0x00, 0x12, 0x00, 0x10, 0x00, 0x00, 0x00, 0x00, 0x00, 0x0c, 0x00,
    0x08, 0x00, 0x00, 0x00, 0x00, 0x00, 0x04, 0x00, 0x12, 0x00, 0x00, 0x00,
    0x03, 0x00, 0x00, 0x00, 0x08, 0x00, 0x00, 0x00, 0xcc, 0x00, 0x00, 0x00,
    0x18, 0x00, 0x00, 0x00, 0x00, 0x00, 0x00, 0x00, 0x00, 0x00, 0x00, 0x00,
    0x00, 0x00, 0x00, 0x00, 0x00, 0x00, 0x00, 0x00, 0x00, 0x00, 0x00, 0x00,
    0x00, 0x00, 0x00, 0x00, 0x00, 0x00, 0x00, 0x00, 0x00, 0x00, 0x00, 0x00,
    0x00, 0x00, 0x00, 0x00, 0x00, 0x00, 0x00, 0x00, 0x00, 0x00, 0x00, 0x00,
    0x00, 0x00, 0x00, 0x00, 0x00, 0x00, 0x00, 0x00, 0x00, 0x00, 0x00, 0x00,
    0x00, 0x00, 0x00, 0x00, 0x00, 0x00, 0x00, 0x00, 0x00, 0x00, 0x00, 0x00,
    0x00, 0x00, 0x00, 0x00, 0x00, 0x00, 0x00, 0x00, 0x00, 0x00, 0x00, 0x00,
    0x00, 0x00, 0x00, 0x00, 0x00, 0x00, 0x00, 0x00, 0x00, 0x00, 0x00, 0x00,
    0x00, 0x00, 0x00, 0x00, 0x00, 0x00, 0x00, 0x00, 0x00, 0x00, 0x00, 0x00,
    0x00, 0x00, 0x00, 0x00, 0x00, 0x00, 0x00, 0x00, 0x00, 0x00, 0x00, 0x00,
    0x00, 0x00, 0x00, 0x00, 0x00, 0x00, 0x00, 0x00, 0x00, 0x00, 0x00, 0x00,
    0x00, 0x00, 0x00, 0x00, 0x00, 0x00, 0x00, 0x00, 0x00, 0x00, 0x00, 0x00,
    0x00, 0x00, 0x00, 0x00, 0x00, 0x00, 0x00, 0x00, 0x00, 0x00, 0x00, 0x00,
    0x00, 0x00, 0x00, 0x00, 0x00, 0x00, 0x00, 0x00, 0x00, 0x00, 0x00, 0x00,
    0x00, 0x00, 0x00, 0x00, 0x00, 0x00, 0x00, 0x00, 0x00, 0x00, 0x00, 0x00,
    0x00, 0x00, 0x00, 0x00, 0x00, 0x00, 0x00, 0x00, 0x00, 0x00, 0x00, 0x00,
    0x00, 0x00, 0x00, 0x00, 0x00, 0x00, 0x00, 0x00, 0x18, 0x00, 0x00, 0x00,
    0x1b, 0x30, 0x10, 0x3b, 0x70, 0x68, 0x85, 0x3b, 0x87, 0x60, 0x84, 0x3b,
    0x27, 0x67, 0x0a, 0x3b, 0xf0, 0x48, 0x33, 0x3b, 0xfc, 0xd9, 0x5a, 0x3b,
    0x22, 0x78, 0x07, 0x3b, 0x1a, 0xc1, 0x8e, 0x3b, 0x5f, 0xd2, 0x2a, 0x3b,
    0xfe, 0x4c, 0x8c, 0x3a, 0x0a, 0xdd, 0xb9, 0x3a, 0x2c, 0x57, 0xfe, 0x3a,
    0xef, 0xdb, 0x92, 0x3a, 0x92, 0x47, 0xc4, 0x3b, 0x2d, 0x17, 0x33, 0x3b,
    0xce, 0xc7, 0x25, 0x3b, 0xf7, 0x0f, 0x7e, 0x3b, 0x83, 0x9e, 0x5d, 0x3b,
    0x00, 0x9d, 0x2b, 0x3b, 0xe6, 0xc2, 0xea, 0x3a, 0x49, 0xd0, 0x58, 0x3b,
    0x83, 0x35, 0x0e, 0x3b, 0x78, 0xca, 0x30, 0x3b, 0xd9, 0xce, 0x4e, 0x3b,
    0x2b, 0x00, 0x00, 0x00, 0x66, 0x75, 0x6e, 0x63, 0x74, 0x69, 0x6f, 0x6e,
    0x61, 0x6c, 0x5f, 0x31, 0x2f, 0x64, 0x65, 0x70, 0x74, 0x68, 0x77, 0x69,
    0x73, 0x65, 0x5f, 0x63, 0x6f, 0x6e, 0x76, 0x32, 0x64, 0x5f, 0x31, 0x5f,
    0x32, 0x2f, 0x64, 0x65, 0x70, 0x74, 0x68, 0x77, 0x69, 0x73, 0x65, 0x00,
    0x04, 0x00, 0x00, 0x00, 0x01, 0x00, 0x00, 0x00, 0x03, 0x00, 0x00, 0x00,
    0x03, 0x00, 0x00, 0x00, 0x18, 0x00, 0x00, 0x00, 0xda, 0xf8, 0xff, 0xff,
    0x00, 0x00, 0x00, 0x01, 0x14, 0x00, 0x00, 0x00, 0x48, 0x01, 0x00, 0x00,
    0x07, 0x00, 0x00, 0x00, 0x00, 0x00, 0x00, 0x02, 0xe8, 0x01, 0x00, 0x00,
    0x24, 0xf8, 0xff, 0xff, 0x08, 0x00, 0x00, 0x00, 0xcc, 0x00, 0x00, 0x00,
    0x18, 0x00, 0x00, 0x00, 0x00, 0x00, 0x00, 0x00, 0x00, 0x00, 0x00, 0x00,
    0x00, 0x00, 0x00, 0x00, 0x00, 0x00, 0x00, 0x00, 0x00, 0x00, 0x00, 0x00,
    0x00, 0x00, 0x00, 0x00, 0x00, 0x00, 0x00, 0x00, 0x00, 0x00, 0x00, 0x00,
    0x00, 0x00, 0x00, 0x00, 0x00, 0x00, 0x00, 0x00, 0x00, 0x00, 0x00, 0x00,
    0x00, 0x00, 0x00, 0x00, 0x00, 0x00, 0x00, 0x00, 0x00, 0x00, 0x00, 0x00,
    0x00, 0x00, 0x00, 0x00, 0x00, 0x00, 0x00, 0x00, 0x00, 0x00, 0x00, 0x00,
    0x00, 0x00, 0x00, 0x00, 0x00, 0x00, 0x00, 0x00, 0x00, 0x00, 0x00, 0x00,
    0x00, 0x00, 0x00, 0x00, 0x00, 0x00, 0x00, 0x00, 0x00, 0x00, 0x00, 0x00,
    0x00, 0x00, 0x00, 0x00, 0x00, 0x00, 0x00, 0x00, 0x00, 0x00, 0x00, 0x00,
    0x00, 0x00, 0x00, 0x00, 0x00, 0x00, 0x00, 0x00, 0x00, 0x00, 0x00, 0x00,
    0x00, 0x00, 0x00, 0x00, 0x00, 0x00, 0x00, 0x00, 0x00, 0x00, 0x00, 0x00,
    0x00, 0x00, 0x00, 0x00, 0x00, 0x00, 0x00, 0x00, 0x00, 0x00, 0x00, 0x00,
    0x00, 0x00, 0x00, 0x00, 0x00, 0x00, 0x00, 0x00, 0x00, 0x00, 0x00, 0x00,
    0x00, 0x00, 0x00, 0x00, 0x00, 0x00, 0x00, 0x00, 0x00, 0x00, 0x00, 0x00,
    0x00, 0x00, 0x00, 0x00, 0x00, 0x00, 0x00, 0x00, 0x00, 0x00, 0x00, 0x00,
    0x00, 0x00, 0x00, 0x00, 0x00, 0x00, 0x00, 0x00, 0x00, 0x00, 0x00, 0x00,
    0x00, 0x00, 0x00, 0x00, 0x00, 0x00, 0x00, 0x00, 0x18, 0x00, 0x00, 0x00,
    0x2f, 0xe9, 0xd4, 0x39, 0x33, 0xfe, 0x44, 0x3a, 0x81, 0x78, 0x43, 0x3a,
    0x60, 0x5e, 0xcc, 0x39, 0x30, 0x5e, 0x04, 0x3a, 0x91, 0x94, 0x21, 0x3a,
    0x68, 0x09, 0xc8, 0x39, 0x42, 0xcb, 0x52, 0x3a, 0x2d, 0x3d, 0xfc, 0x39,
    0xc7, 0x2b, 0x4f, 0x39, 0x93, 0x39, 0x89, 0x39, 0x41, 0xc8, 0xbb, 0x39,
    0xf0, 0xda, 0x58, 0x39, 0x4e, 0xea, 0x90, 0x3a, 0x72, 0x39, 0x04, 0x3a,
    0x80, 0xcb, 0xf4, 0x39, 0xaf, 0x93, 0x3b, 0x3a, 0xae, 0x9f, 0x23, 0x3a,
    0x62, 0x68, 0xfd, 0x39, 0xa4, 0x53, 0xad, 0x39, 0x64, 0x13, 0x20, 0x3a,
    0x23, 0xfd, 0xd1, 0x39, 0xcc, 0x86, 0x02, 0x3a, 0x41, 0xb0, 0x18, 0x3a,
    0xa6, 0x00, 0x00, 0x00, 0x66, 0x75, 0x6e, 0x63, 0x74, 0x69, 0x6f, 0x6e,
    0x61, 0x6c, 0x5f, 0x31, 0x2f, 0x64, 0x65, 0x70, 0x74, 0x68, 0x77, 0x69,
    0x73, 0x65, 0x5f, 0x63, 0x6f, 0x6e, 0x76, 0x32, 0x64, 0x5f, 0x31, 0x5f,
    0x32, 0x2f, 0x52, 0x65, 0x6c, 0x75, 0x3b, 0x66, 0x75, 0x6e, 0x63, 0x74,
    0x69, 0x6f, 0x6e, 0x61, 0x6c, 0x5f, 0x31, 0x2f, 0x64, 0x65, 0x70, 0x74,
    0x68, 0x77, 0x69, 0x73, 0x65, 0x5f, 0x63, 0x6f, 0x6e, 0x76, 0x32, 0x64,
    0x5f, 0x31, 0x5f, 0x32, 0x2f, 0x42, 0x69, 0x61, 0x73, 0x41, 0x64, 0x64,
    0x3b, 0x66, 0x75, 0x6e, 0x63, 0x74, 0x69, 0x6f, 0x6e, 0x61, 0x6c, 0x5f,
    0x31, 0x2f, 0x64, 0x65, 0x70, 0x74, 0x68, 0x77, 0x69, 0x73, 0x65, 0x5f,
    0x63, 0x6f, 0x6e, 0x76, 0x32, 0x64, 0x5f, 0x31, 0x5f, 0x32, 0x2f, 0x64,
    0x65, 0x70, 0x74, 0x68, 0x77, 0x69, 0x73, 0x65, 0x3b, 0x66, 0x75, 0x6e,
    0x63, 0x74, 0x69, 0x6f, 0x6e, 0x61, 0x6c, 0x5f, 0x31, 0x2f, 0x64, 0x65,
    0x70, 0x74, 0x68, 0x77, 0x69, 0x73, 0x65, 0x5f, 0x63, 0x6f, 0x6e, 0x76,
    0x32, 0x64, 0x5f, 0x31, 0x5f, 0x32, 0x2f, 0x53, 0x71, 0x75, 0x65, 0x65,
    0x7a, 0x65, 0x00, 0x00, 0x01, 0x00, 0x00, 0x00, 0x18, 0x00, 0x00, 0x00,
    0xe2, 0xfa, 0xff, 0xff, 0x00, 0x00, 0x00, 0x01, 0x14, 0x00, 0x00, 0x00,
    0xa8, 0x01, 0x00, 0x00, 0x06, 0x00, 0x00, 0x00, 0x00, 0x00, 0x00, 0x09,
    0xc4, 0x01, 0x00, 0x00, 0x2c, 0xfa, 0xff, 0xff, 0x08, 0x00, 0x00, 0x00,
    0x0c, 0x01, 0x00, 0x00, 0x20, 0x00, 0x00, 0x00, 0x00, 0x00, 0x00, 0x00,
    0x00, 0x00, 0x00, 0x00, 0x00, 0x00, 0x00, 0x00, 0x00, 0x00, 0x00, 0x00,
    0x00, 0x00, 0x00, 0x00, 0x00, 0x00, 0x00, 0x00, 0x00, 0x00, 0x00, 0x00,
    0x00, 0x00, 0x00, 0x00, 0x00, 0x00, 0x00, 0x00, 0x00, 0x00, 0x00, 0x00,
    0x00, 0x00, 0x00, 0x00, 0x00, 0x00, 0x00, 0x00, 0x00, 0x00, 0x00, 0x00,
    0x00, 0x00, 0x00, 0x00, 0x00, 0x00, 0x00, 0x00, 0x00, 0x00, 0x00, 0x00,
    0x00, 0x00, 0x00, 0x00, 0x00, 0x00, 0x00, 0x00, 0x00, 0x00, 0x00, 0x00,
    0x00, 0x00, 0x00, 0x00, 0x00, 0x00, 0x00, 0x00, 0x00, 0x00, 0x00, 0x00,
    0x00, 0x00, 0x00, 0x00, 0x00, 0x00, 0x00, 0x00, 0x00, 0x00, 0x00, 0x00,
    0x00, 0x00, 0x00, 0x00, 0x00, 0x00, 0x00, 0x00, 0x00, 0x00, 0x00, 0x00,
    0x00, 0x00, 0x00, 0x00, 0x00, 0x00, 0x00, 0x00, 0x00, 0x00, 0x00, 0x00,
    0x00, 0x00, 0x00, 0x00, 0x00, 0x00, 0x00, 0x00, 0x00, 0x00, 0x00, 0x00,
    0x00, 0x00, 0x00, 0x00, 0x00, 0x00, 0x00, 0x00, 0x00, 0x00, 0x00, 0x00,
    0x00, 0x00, 0x00, 0x00, 0x00, 0x00, 0x00, 0x00, 0x00, 0x00, 0x00, 0x00,
    0x00, 0x00, 0x00, 0x00, 0x00, 0x00, 0x00, 0x00, 0x00, 0x00, 0x00, 0x00,
    0x00, 0x00, 0x00, 0x00, 0x00, 0x00, 0x00, 0x00, 0x00, 0x00, 0x00, 0x00,
    0x00, 0x00, 0x00, 0x00, 0x00, 0x00, 0x00, 0x00, 0x00, 0x00, 0x00, 0x00,
    0x00, 0x00, 0x00, 0x00, 0x00, 0x00, 0x00, 0x00, 0x00, 0x00, 0x00, 0x00,
    0x00, 0x00, 0x00, 0x00, 0x00, 0x00, 0x00, 0x00, 0x00, 0x00, 0x00, 0x00,
    0x00, 0x00, 0x00, 0x00, 0x00, 0x00, 0x00, 0x00, 0x00, 0x00, 0x00, 0x00,
    0x00, 0x00, 0x00, 0x00, 0x00, 0x00, 0x00, 0x00, 0x00, 0x00, 0x00, 0x00,
    0x00, 0x00, 0x00, 0x00, 0x00, 0x00, 0x00, 0x00, 0x00, 0x00, 0x00, 0x00,
    0x00, 0x00, 0x00, 0x00, 0x20, 0x00, 0x00, 0x00, 0x35, 0x03, 0xb1, 0x3b,
    0xcb, 0xb1, 0x32, 0x3b, 0x49, 0x8e, 0xbd, 0x3b, 0x0e, 0xdb, 0x95, 0x3b,
    0x7b, 0x4f, 0xae, 0x3b, 0x3b, 0x22, 0xac, 0x3b, 0xcb, 0xf8, 0xc6, 0x3b,
    0x2d, 0x55, 0xbc, 0x3b, 0xbb, 0x36, 0xec, 0x3b, 0x6b, 0x8b, 0xb0, 0x3b,
    0xc8, 0xa8, 0x9c, 0x3b, 0x3e, 0xf3, 0xba, 0x3b, 0x5a, 0x19, 0x35, 0x3b,
    0x8f, 0x2f, 0xa5, 0x3b, 0x12, 0x4f, 0xfe, 0x3b, 0xbd, 0xf0, 0xa0, 0x3b,
    0x66, 0x9d, 0xbd, 0x3b, 0x5f, 0x88, 0xb8, 0x3b, 0x41, 0x29, 0xbf, 0x3b,
    0xfc, 0xa7, 0xad, 0x3b, 0x7b, 0x96, 0x8f, 0x3b, 0x24, 0x5e, 0x3a, 0x3b,
    0xe6, 0x11, 0x4e, 0x3b, 0x66, 0x44, 0xb9, 0x3b, 0xe3, 0xc2, 0xad, 0x3b,
    0x9b, 0x72, 0x9e, 0x3b, 0xf0, 0x0b, 0xe7, 0x3b, 0xd1, 0x5f, 0xce, 0x3b,
    0xb7, 0x67, 0xbe, 0x3b, 0x29, 0x96, 0xc3, 0x3b, 0x1d, 0x97, 0xc5, 0x3b,
    0x43, 0xc8, 0x82, 0x3b, 0x23, 0x00, 0x00, 0x00, 0x66, 0x75, 0x6e, 0x63,
    0x74, 0x69, 0x6f, 0x6e, 0x61, 0x6c, 0x5f, 0x31, 0x2f, 0x63, 0x6f, 0x6e,
    0x76, 0x32, 0x64, 0x5f, 0x32, 0x5f, 0x31, 0x2f, 0x63, 0x6f, 0x6e, 0x76,
    0x6f, 0x6c, 0x75, 0x74, 0x69, 0x6f, 0x6e, 0x00, 0x04, 0x00, 0x00, 0x00,
    0x20, 0x00, 0x00, 0x00, 0x01, 0x00, 0x00, 0x00, 0x01, 0x00, 0x00, 0x00,
    0x18, 0x00, 0x00, 0x00, 0xd2, 0xfc, 0xff, 0xff, 0x00, 0x00, 0x00, 0x01,
    0x14, 0x00, 0x00, 0x00, 0xa4, 0x01, 0x00, 0x00, 0x05, 0x00, 0x00, 0x00,
    0x00, 0x00, 0x00, 0x02, 0x20, 0x02, 0x00, 0x00, 0x1c, 0xfc, 0xff, 0xff,
    0x08, 0x00, 0x00, 0x00, 0x08, 0x01, 0x00, 0x00, 0x20, 0x00, 0x00, 0x00,
    0x00, 0x00, 0x00, 0x00, 0x00, 0x00, 0x00, 0x00, 0x00, 0x00, 0x00, 0x00,
    0x00, 0x00, 0x00, 0x00, 0x00, 0x00, 0x00, 0x00, 0x00, 0x00, 0x00, 0x00,
    0x00, 0x00, 0x00, 0x00, 0x00, 0x00, 0x00, 0x00, 0x00, 0x00, 0x00, 0x00,
    0x00, 0x00, 0x00, 0x00, 0x00, 0x00, 0x00, 0x00, 0x00, 0x00, 0x00, 0x00,
    0x00, 0x00, 0x00, 0x00, 0x00, 0x00, 0x00, 0x00, 0x00, 0x00, 0x00, 0x00,
    0x00, 0x00, 0x00, 0x00, 0x00, 0x00, 0x00, 0x00, 0x00, 0x00, 0x00, 0x00,
    0x00, 0x00, 0x00, 0x00, 0x00, 0x00, 0x00, 0x00, 0x00, 0x00, 0x00, 0x00,
    0x00, 0x00, 0x00, 0x00, 0x00, 0x00, 0x00, 0x00, 0x00, 0x00, 0x00, 0x00,
    0x00, 0x00, 0x00, 0x00, 0x00, 0x00, 0x00, 0x00, 0x00, 0x00, 0x00, 0x00,
    0x00, 0x00, 0x00, 0x00, 0x00, 0x00, 0x00, 0x00, 0x00, 0x00, 0x00, 0x00,
    0x00, 0x00, 0x00, 0x00, 0x00, 0x00, 0x00, 0x00, 0x00, 0x00, 0x00, 0x00,
    0x00, 0x00, 0x00, 0x00, 0x00, 0x00, 0x00, 0x00, 0x00, 0x00, 0x00, 0x00,
    0x00, 0x00, 0x00, 0x00, 0x00, 0x00, 0x00, 0x00, 0x00, 0x00, 0x00, 0x00,
    0x00, 0x00, 0x00, 0x00, 0x00, 0x00, 0x00, 0x00, 0x00, 0x00, 0x00, 0x00,
    0x00, 0x00, 0x00, 0x00, 0x00, 0x00, 0x00, 0x00, 0x00, 0x00, 0x00, 0x00,
    0x00, 0x00, 0x00, 0x00, 0x00, 0x00, 0x00, 0x00, 0x00, 0x00, 0x00, 0x00,
    0x00, 0x00, 0x00, 0x00, 0x00, 0x00, 0x00, 0x00, 0x00, 0x00, 0x00, 0x00,
    0x00, 0x00, 0x00, 0x00, 0x00, 0x00, 0x00, 0x00, 0x00, 0x00, 0x00, 0x00,
    0x00, 0x00, 0x00, 0x00, 0x00, 0x00, 0x00, 0x00, 0x00, 0x00, 0x00, 0x00,
    0x00, 0x00, 0x00, 0x00, 0x00, 0x00, 0x00, 0x00, 0x00, 0x00, 0x00, 0x00,
    0x00, 0x00, 0x00, 0x00, 0x00, 0x00, 0x00, 0x00, 0x00, 0x00, 0x00, 0x00,
    0x00, 0x00, 0x00, 0x00, 0x20, 0x00, 0x00, 0x00, 0x65, 0xdc, 0x99, 0x39,
    0xaa, 0x52, 0x1b, 0x39, 0x7f, 0xc3, 0xa4, 0x39, 0x85, 0x41, 0x82, 0x39,
    0x24, 0x83, 0x97, 0x39, 0xc6, 0x9e, 0x95, 0x39, 0xbb, 0xf2, 0xac, 0x39,
    0x56, 0xb3, 0xa3, 0x39, 0xb8, 0x51, 0xcd, 0x39, 0x46, 0x74, 0x99, 0x39,
    0x72, 0x2b, 0x88, 0x39, 0xb2, 0x7f, 0xa2, 0x39, 0xb7, 0x69, 0x1d, 0x39,
    0xbc, 0x94, 0x8f, 0x39, 0x31, 0x0c, 0xdd, 0x39, 0x10, 0xe4, 0x8b, 0x39,
    0xa2, 0xd0, 0xa4, 0x39, 0xc4, 0x65, 0xa0, 0x39, 0xb6, 0x28, 0xa6, 0x39,
    0x8d, 0xf1, 0x96, 0x39, 0x9f, 0x9d, 0x79, 0x39, 0x18, 0xfe, 0x21, 0x39,
    0x2d, 0x1e, 0x33, 0x39, 0x34, 0x09, 0xa1, 0x39, 0xf0, 0x08, 0x97, 0x39,
    0x64, 0xb9, 0x89, 0x39, 0xef, 0xd3, 0xc8, 0x39, 0xe7, 0x61, 0xb3, 0x39,
    0x7d, 0x80, 0xa5, 0x39, 0x72, 0x01, 0xaa, 0x39, 0x4f, 0xbf, 0xab, 0x39,
    0xb4, 0x5a, 0x63, 0x39, 0x80, 0x00, 0x00, 0x00, 0x66, 0x75, 0x6e, 0x63,
    0x74, 0x69, 0x6f, 0x6e, 0x61, 0x6c, 0x5f, 0x31, 0x2f, 0x63, 0x6f, 0x6e,
    0x76, 0x32, 0x64, 0x5f, 0x32, 0x5f, 0x31, 0x2f, 0x52, 0x65, 0x6c, 0x75,
    0x3b, 0x66, 0x75, 0x6e, 0x63, 0x74, 0x69, 0x6f, 0x6e, 0x61, 0x6c, 0x5f,
    0x31, 0x2f, 0x63, 0x6f, 0x6e, 0x76, 0x32, 0x64, 0x5f, 0x32, 0x5f, 0x31,
    0x2f, 0x42, 0x69, 0x61, 0x73, 0x41, 0x64, 0x64, 0x3b, 0x66, 0x75, 0x6e,
    0x63, 0x74, 0x69, 0x6f, 0x6e, 0x61, 0x6c, 0x5f, 0x31, 0x2f, 0x63, 0x6f,
    0x6e, 0x76, 0x32, 0x64, 0x5f, 0x32, 0x5f, 0x31, 0x2f, 0x63, 0x6f, 0x6e,
    0x76, 0x6f, 0x6c, 0x75, 0x74, 0x69, 0x6f, 0x6e, 0x3b, 0x66, 0x75, 0x6e,
    0x63, 0x74, 0x69, 0x6f, 0x6e, 0x61, 0x6c, 0x5f, 0x31, 0x2f, 0x63, 0x6f,
    0x6e, 0x76, 0x32, 0x64, 0x5f, 0x32, 0x5f, 0x31, 0x2f, 0x53, 0x71, 0x75,
    0x65, 0x65, 0x7a, 0x65, 0x00, 0x00, 0x00, 0x00, 0x01, 0x00, 0x00, 0x00,
    0x20, 0x00, 0x00, 0x00, 0x12, 0xff, 0xff, 0xff, 0x00, 0x00, 0x00, 0x01,
    0x14, 0x00, 0x00, 0x00, 0x40, 0x00, 0x00, 0x00, 0x04, 0x00, 0x00, 0x00,
    0x00, 0x00, 0x00, 0x09, 0x54, 0x00, 0x00, 0x00, 0x5c, 0xfe, 0xff, 0xff,
    0x08, 0x00, 0x00, 0x00, 0x1c, 0x00, 0x00, 0x00, 0x02, 0x00, 0x00, 0x00,
    0x00, 0x00, 0x00, 0x00, 0x00, 0x00, 0x00, 0x00, 0x00, 0x00, 0x00, 0x00,
    0x00, 0x00, 0x00, 0x00, 0x00, 0x00, 0x00, 0x00, 0x02, 0x00, 0x00, 0x00,
    0xce, 0xa1, 0xc5, 0x3b, 0x57, 0xc3, 0xb8, 0x3b, 0x1b, 0x00, 0x00, 0x00,
    0x66, 0x75, 0x6e, 0x63, 0x74, 0x69, 0x6f, 0x6e, 0x61, 0x6c, 0x5f, 0x31,
    0x2f, 0x64, 0x65, 0x6e, 0x73, 0x65, 0x5f, 0x31, 0x2f, 0x4d, 0x61, 0x74,
    0x4d, 0x75, 0x6c, 0x00, 0x02, 0x00, 0x00, 0x00, 0x02, 0x00, 0x00, 0x00,
    0x20, 0x00, 0x00, 0x00, 0x8a, 0xff, 0xff, 0xff, 0x00, 0x00, 0x00, 0x01,
    0x14, 0x00, 0x00, 0x00, 0x3c, 0x00, 0x00, 0x00, 0x03, 0x00, 0x00, 0x00,
    0x00, 0x00, 0x00, 0x02, 0x54, 0x00, 0x00, 0x00, 0xd4, 0xfe, 0xff, 0xff,
    0x08, 0x00, 0x00, 0x00, 0x18, 0x00, 0x00, 0x00, 0x02, 0x00, 0x00, 0x00,
    0x00, 0x00, 0x00, 0x00, 0x00, 0x00, 0x00, 0x00, 0x00, 0x00, 0x00, 0x00,
    0x00, 0x00, 0x00, 0x00, 0x02, 0x00, 0x00, 0x00, 0xec, 0x4a, 0xaf, 0x38,
    0xd9, 0xe0, 0xa3, 0x38, 0x1c, 0x00, 0x00, 0x00, 0x66, 0x75, 0x6e, 0x63,
    0x74, 0x69, 0x6f, 0x6e, 0x61, 0x6c, 0x5f, 0x31, 0x2f, 0x64, 0x65, 0x6e,
    0x73, 0x65, 0x5f, 0x31, 0x2f, 0x42, 0x69, 0x61, 0x73, 0x41, 0x64, 0x64,
    0x00, 0x00, 0x00, 0x00, 0x01, 0x00, 0x00, 0x00, 0x02, 0x00, 0x00, 0x00,
    0x00, 0x00, 0x16, 0x00, 0x1c, 0x00, 0x18, 0x00, 0x17, 0x00, 0x10, 0x00,
    0x0c, 0x00, 0x08, 0x00, 0x00, 0x00, 0x00, 0x00, 0x00, 0x00, 0x07, 0x00,
    0x16, 0x00, 0x00, 0x00, 0x00, 0x00, 0x00, 0x01, 0x18, 0x00, 0x00, 0x00,
    0x18, 0x00, 0x00, 0x00, 0x02, 0x00, 0x00, 0x00, 0x00, 0x00, 0x00, 0x02,
    0x50, 0x00, 0x00, 0x00, 0x04, 0x00, 0x04, 0x00, 0x04, 0x00, 0x00, 0x00,
    0x3e, 0x00, 0x00, 0x00, 0x66, 0x75, 0x6e, 0x63, 0x74, 0x69, 0x6f, 0x6e,
    0x61, 0x6c, 0x5f, 0x31, 0x2f, 0x67, 0x6c, 0x6f, 0x62, 0x61, 0x6c, 0x5f,
    0x61, 0x76, 0x65, 0x72, 0x61, 0x67, 0x65, 0x5f, 0x70, 0x6f, 0x6f, 0x6c,
    0x69, 0x6e, 0x67, 0x32, 0x64, 0x5f, 0x31, 0x2f, 0x4d, 0x65, 0x61, 0x6e,
    0x2f, 0x72, 0x65, 0x64, 0x75, 0x63, 0x74, 0x69, 0x6f, 0x6e, 0x5f, 0x69,
    0x6e, 0x64, 0x69, 0x63, 0x65, 0x73, 0x00, 0x00, 0x01, 0x00, 0x00, 0x00,
    0x02, 0x00, 0x00, 0x00, 0x00, 0x00, 0x16, 0x00, 0x20, 0x00, 0x1c, 0x00,
    0x1b, 0x00, 0x14, 0x00, 0x10, 0x00, 0x0c, 0x00, 0x00, 0x00, 0x00, 0x00,
    0x08, 0x00, 0x07, 0x00, 0x16, 0x00, 0x00, 0x00, 0x00, 0x00, 0x00, 0x01,
    0x18, 0x00, 0x00, 0x00, 0x34, 0x00, 0x00, 0x00, 0x50, 0x00, 0x00, 0x00,
    0x01, 0x00, 0x00, 0x00, 0x00, 0x00, 0x00, 0x09, 0x68, 0x00, 0x00, 0x00,
    0x04, 0x00, 0x00, 0x00, 0xff, 0xff, 0xff, 0xff, 0x62, 0x00, 0x00, 0x00,
    0x0d, 0x00, 0x00, 0x00, 0x01, 0x00, 0x00, 0x00, 0x0c, 0x00, 0x0c, 0x00,
    0x00, 0x00, 0x00, 0x00, 0x08, 0x00, 0x04, 0x00, 0x0c, 0x00, 0x00, 0x00,
    0x08, 0x00, 0x00, 0x00, 0x10, 0x00, 0x00, 0x00, 0x01, 0x00, 0x00, 0x00,
    0x46, 0x00, 0x00, 0x00, 0x00, 0x00, 0x00, 0x00, 0x01, 0x00, 0x00, 0x00,
    0xca, 0x74, 0xb6, 0x3e, 0x1d, 0x00, 0x00, 0x00, 0x73, 0x65, 0x72, 0x76,
    0x69, 0x6e, 0x67, 0x5f, 0x64, 0x65, 0x66, 0x61, 0x75, 0x6c, 0x74, 0x5f,
    0x69, 0x6e, 0x70, 0x75, 0x74, 0x5f, 0x6c, 0x61, 0x79, 0x65, 0x72, 0x3a,
    0x30, 0x00, 0x00, 0x00, 0x04, 0x00, 0x00, 0x00, 0x01, 0x00, 0x00, 0x00,
    0x62, 0x00, 0x00, 0x00, 0x0d, 0x00, 0x00, 0x00, 0x01, 0x00, 0x00, 0x00,
    0x06, 0x00, 0x00, 0x00, 0x74, 0x00, 0x00, 0x00, 0x54, 0x00, 0x00, 0x00,
    0x40, 0x00, 0x00, 0x00, 0x2c, 0x00, 0x00, 0x00, 0x18, 0x00, 0x00, 0x00,
    0x04, 0x00, 0x00, 0x00, 0xb0, 0xff, 0xff, 0xff, 0x19, 0x00, 0x00, 0x00,
    0x02, 0x00, 0x00, 0x00, 0x00, 0x00, 0x00, 0x19, 0xc0, 0xff, 0xff, 0xff,
    0x09, 0x00, 0x00, 0x00, 0x04, 0x00, 0x00, 0x00, 0x00, 0x00, 0x00, 0x09,
    0xd0, 0xff, 0xff, 0xff, 0x28, 0x00, 0x00, 0x00, 0x02, 0x00, 0x00, 0x00,
    0x00, 0x00, 0x00, 0x28, 0xe0, 0xff, 0xff, 0xff, 0x11, 0x00, 0x00, 0x00,
    0x02, 0x00, 0x00, 0x00, 0x00, 0x00, 0x00, 0x11, 0xf0, 0xff, 0xff, 0xff,
    0x04, 0x00, 0x00, 0x00, 0x03, 0x00, 0x00, 0x00, 0x00, 0x00, 0x00, 0x04,
    0x0c, 0x00, 0x10, 0x00, 0x0f, 0x00, 0x00, 0x00, 0x08, 0x00, 0x04, 0x00,
    0x0c, 0x00, 0x00, 0x00, 0x03, 0x00, 0x00, 0x00, 0x03, 0x00, 0x00, 0x00,
    0x00, 0x00, 0x00, 0x03
};

const unsigned int rain_detector_tflite_len = 10648;
